
/**
  ******************************************************************************
  * @file    network_data.c
  * @author  AST Embedded Analytics Research Platform
  * @date    Mon Jul  8 19:56:28 2024
  * @brief   AI Tool Automatic Code Generator for Embedded NN computing
  ******************************************************************************
  * @attention
  *
  * Copyright (c) 2021 STMicroelectronics.
  * All rights reserved.
  *
  * This software is licensed under terms that can be found in the LICENSE file
  * in the root directory of this software component.
  * If no LICENSE file comes with this software, it is provided AS-IS.
  ******************************************************************************
  */
#include "network_data.h"
#include "ai_platform_interface.h"

AI_API_DECLARE_BEGIN

AI_ALIGNED(32)
const ai_u64 s_network_network_weights_array_u64[ 5150 ] = {
  0x3d54ab073e57ec9fU, 0xbea65d5d3e843c49U, 0x3e35c655be876565U, 0xbeb9f33fbe150f4dU,
  0x3c0ecaf53e2ce3f5U, 0x3ebd9da2be595906U, 0xbe8796513e47df8bU, 0xbeafd0ff3e6a860cU,
  0xbeba00b3be54c663U, 0xbebeec683e486c4cU, 0x3c86c35abe91e563U, 0x42e25e9d3e4a5877U,
  0xbd4bc68abfb62563U, 0x3db1cd9ebd207666U, 0xbe4c0b7a3d8faf0aU, 0x3e6aea8d3e27e793U,
  0xbe7ca9053e481a0bU, 0x3e496c233e31a23cU, 0xbdbb3c443e68db80U, 0x3dec92a0be1b70f5U,
  0xbe8475fcbde719b8U, 0xbe03d53abd5b825bU, 0xbe8067383c8803beU, 0xbcab97803d15704cU,
  0x3ce596263d9f5b75U, 0xbe81e9fbbad20190U, 0x3ca89864bdab9247U, 0x3e4c23cbbdb76b8bU,
  0x3e3cb40abe472c56U, 0xbd5c6617be0d9fdfU, 0xbdfdda1cbdf00affU, 0xbc9c05853d18a18bU,
  0xbdccba32bdd7c201U, 0x3e84d2513d781c2fU, 0x3caa1fc4be7254a2U, 0x3dc19afebc07e1abU,
  0x3e8109c33d3d0715U, 0x3e5a47fbbca8761fU, 0xbe49d1fd3d82c458U, 0x3e6676b2bd13a216U,
  0xbd41c5323e2e7035U, 0x3b481f2abe2984f9U, 0xbe1576d43c549d72U, 0x3de3a1e93e3858dcU,
  0x3daf2725bdc8ee95U, 0xbb335f99bdf8e356U, 0x3e3056bf3d27cbb7U, 0x3e81647cbe5d7e41U,
  0xbe02e5c13da31a6cU, 0xbe0301c5bd304b0bU, 0x3e80393ebe052c6fU, 0x3d933480be774967U,
  0x3da53c923e2b2355U, 0x40492fe63d24969eU, 0x40df249d400b7bbbU, 0x4036ec07400b8344U,
  0xbf1f625ebe6aa966U, 0xbeab9bbbbfa7a0a0U, 0xbe3657dcbe96ad6cU, 0x3d4f27553db6075dU,
  0xbdea46bebbe3b4d9U, 0x3d3c6ae7be4313ceU, 0x3e1a7dfdbe4a4f8aU, 0xbe4fd3053e5b131aU,
  0x3c166941bd739628U, 0xbd2978ebbddc2136U, 0xbd1bf8ed3cb6c84bU, 0x3daef7513e13f983U,
  0xbe37a37b3dafaa25U, 0xbe10ed1f3aa281eaU, 0xbd6c446b3e2c458aU, 0x3de9df00bdccafbfU,
  0x3e1eb96dbe0f0775U, 0xbbbcae04bde6eb20U, 0xbe039926be5e3542U, 0xbd9e9622bda81c3aU,
  0xbe18fb2a3d1f7f92U, 0xbd4eba3e3c0b14c7U, 0xbd8a70163d234b4fU, 0xbe02b92d3aa9b983U,
  0x3cd63a62be12acb7U, 0x3e032ee0bcb33386U, 0xbd93fc2fbdc47790U, 0x3e2844233dfbb2d0U,
  0xbe5065d73b123519U, 0x3d405b2f3e29e6a4U, 0x3df6f696bd922ae9U, 0xbe1dd79fbe46d08fU,
  0xbdcd61d5bd5d32cfU, 0xbe3e1ad43dbd00a3U, 0xbdc7bada3e37bfd4U, 0xbe37116bbdffea84U,
  0x3e1771e43c505d12U, 0x3cd48542be2cfd26U, 0xbe5eac36be19b486U, 0x3e05a838bdcfc844U,
  0xbde9ebe53dad0ba6U, 0x3def8decbe43d115U, 0xbe25da723ba56a90U, 0x3d2c1e3cbe577b8fU,
  0x3e04a8b1bda769d7U, 0x3ca7e2163e2e1c9fU, 0x3ddd2a45bdbb3efeU, 0x3d62411fbe2e623fU,
  0xbb80dca5bdaa6e69U, 0x3e47893e3d7f8740U, 0x3e0b675fbe0dbfc1U, 0xbc6fd3a23e3e593eU,
  0x3d91dd3abcb2059fU, 0xbe5726c43e611fa8U, 0x3d325fe9bd924f80U, 0xbd5ed2b33de0c260U,
  0xbd3b9498be262808U, 0xbd92723b3dbab303U, 0x3d0b16cb3db59c41U, 0x3df45bbb3d02614cU,
  0x3d10a746bdefb32eU, 0xbdb92ede3c20734fU, 0xbd9f6d0d3e23dea8U, 0x3d856441bd987e3eU,
  0x3e0c9c9fbdc2f755U, 0xbbf7cb02be3d1e9fU, 0x3e182c653e4cdef9U, 0x3e38668dbcc55072U,
  0x3dc65ae4be007510U, 0x3c4428c73e03387eU, 0xbe3e0ca53d969a35U, 0xbe38b35f3d431716U,
  0x3d22d3273df6db50U, 0xbdbebb84be0ff1a7U, 0x3e02a8f4be049a58U, 0xbd11e7c6bc3ed42dU,
  0x3e4a70c23d680c0eU, 0x3deae191bd641802U, 0xbd9cd95bbdf26dc5U, 0xbe3e7ecfbcc9cef8U,
  0x3e5d4c3abd8210bbU, 0x3c9efdcf3e0a25d3U, 0x3e3c67053e05ca81U, 0xbd539f55bdd8acc6U,
  0x3c9261afbe5a2397U, 0xbd719249be0a4409U, 0xbde754b0be5b2538U, 0xbcf93a673d168bebU,
  0x3e5a1d403e59025eU, 0xbd8eedcb3e3eecedU, 0x3dec61533dd78b23U, 0xbe2abce33dd4d2cbU,
  0x3dd0baf5be3cba11U, 0xbe5118f33e0b222aU, 0xbd6ba335be213c11U, 0x3c13a9143e4606b4U,
  0xbdb1cf95be10194dU, 0x3d144e46bd95b844U, 0x3d97e0e2be12a1ceU, 0x3d9d6725bdfc742bU,
  0x3df614e63d4803c6U, 0x3e472195be09d170U, 0x3e372c483c276c8aU, 0x3e2021313d5df5f3U,
  0xbda4dc5ebe2a64f6U, 0x3e45a5e3bdd7f794U, 0xbe307a8abe191305U, 0x40a45aca3d12fb3cU,
  0x3fd5a2df40c9fd78U, 0x408f34d940ce1f83U, 0x3ffb8a4b403b5239U, 0x40d01315407f0e9dU,
  0xbf8ec5c7401bf9eeU, 0xbf2c3a9ebf83435fU, 0xbed9f927be8b0673U, 0xbf5f0894bef40f4dU,
  0xbe833a60bdf602ebU, 0x3db42ac2bf073ddfU, 0x3c99665d3c9a1451U, 0xbd3b6d1abd5cb5d3U,
  0xbb7e47b93e131d9dU, 0xbdef9c30bd39e5d3U, 0x3e0e92edbd9547ceU, 0xbd78ff363de0ca4aU,
  0x3d4a83f2bcd4d094U, 0x3dc135933e105509U, 0x3df294f6bd426b91U, 0x3b4c9882bcd3b715U,
  0x3d475803bdedf5ccU, 0x3dde87ed3c9788f2U, 0xbd6b5e453e199bb0U, 0xbd822576bd55d40dU,
  0x3e07c4553dce9333U, 0x3dcaea8bbe134e27U, 0xbe0404ba3e19a8eaU, 0x3c9cbbb33d3435bcU,
  0xbcb522ea3e17c38cU, 0x3e02e42cbe024f76U, 0x3dbe2b743dff4a36U, 0x3e089c0abe1bb3b4U,
  0xbc1b18e33dcbfb3cU, 0xbdc7c5ab3dfca128U, 0xbdeffbc2bdbe5e8eU, 0x3d3ed174be0a48e1U,
  0xbd901853be16fe82U, 0x3e167882bd9a8afeU, 0xbd5af7d0be126e0aU, 0x3e0e31a9be1ed324U,
  0xbdacb037bda82abcU, 0x3cb5d3fb3d9de3e6U, 0x3d8567cfbc65adf7U, 0x3e10cc513e07b3feU,
  0xbdfdc5aa3c0d893bU, 0x3e1d0098bd8f5e69U, 0x3df3e1133cd1e78eU, 0xbca73bbf3daa4082U,
  0x3d91dd58baa6e106U, 0xbe1145a53e1e52b1U, 0x3d3233fabd1e4791U, 0xbce520d73e0c4acaU,
  0xbd946e39bbfdbab1U, 0x3e1ed0e23e14d88aU, 0xbe248de93e0af5fcU, 0x3d3561b2bdca1194U,
  0x3cff25d8be147d62U, 0x3dc12492bb484da1U, 0x3e24e3703d53441fU, 0x3e04584fbe171565U,
  0x3de48bccbb7784caU, 0x3e11bb50bda4f1c8U, 0xbd1de3aebda4f14cU, 0xbe0a2a6ebde2951aU,
  0xbde360d7bcd902dfU, 0xbcfccbb33d11b866U, 0x3e174d4f3e04bbb6U, 0xbe09afba3e249526U,
  0xbe1d5261be0ef90fU, 0xbe0e7776be0f0715U, 0xbc8c3ebb3ca3c5e3U, 0x3e22a009bcfafe86U,
  0x3cdffcc0bcea981cU, 0x3c87bbb73e086ac7U, 0x3d306a3a3e14a598U, 0xbd05a2d9bc496668U,
  0x3d904a09be1d3696U, 0x3d7a47583dab15a5U, 0x3d8234edbca42849U, 0x3d603d2ebe1a30a3U,
  0x3ca9bec13da70246U, 0xbdb9ccfcbdd88313U, 0xbd4ac82d3d45e284U, 0xbda1d034be086778U,
  0xbd8602edbded3a8cU, 0xbd8124eb3de1c6b2U, 0x3ba942f0bdc9084fU, 0xbde5bcf83e09d0f7U,
  0x3d90190a3e14c7e3U, 0xbc3625a6bc2ad021U, 0x3e0134df3e0d7ca2U, 0xbcb81effbd91d2b2U,
  0x3e06f634bda5fff9U, 0x3e1719d9be0664faU, 0x3e1567abbdf2d030U, 0xbc17791e3d4be58bU,
  0x3d126a75be0e6f7bU, 0xbe124eaf3dded986U, 0xbdf3695fbcf89e66U, 0xbdd12aec3d4708dcU,
  0xbe269d3fbe06d232U, 0xbe1ab3bd3dc2d088U, 0xbdb5a218be03ec14U, 0x3dff187ebe0ef5f1U,
  0xbd256d87bbc03cfaU, 0x3c3e74453d121032U, 0xbd3799b2bda8965eU, 0xbdd18aba3d42861dU,
  0x3dbb0a6c3dd77e9cU, 0xbdaadb7b3ddd791bU, 0xbe20d3693d8cbe01U, 0x3e042fe0bcfd6eedU,
  0xbdb8a8953dff7edbU, 0x3db0b75fbc6361c9U, 0xbd77c5e9bcf89090U, 0x3d1784bfbd02f31bU,
  0x3de99a863dcc99a8U, 0x3c896a153e05d3c0U, 0xbdf021b93d4d1a8cU, 0xbe1a5c19bdbaf295U,
  0xbe09fdc4bd722c6fU, 0x3e0b45babd653644U, 0xbda4b4a3bdce7545U, 0xbc874ef9bcb1c85cU,
  0xbd68a2c63cfb5b47U, 0xbdf27179bd61417eU, 0xbd98dd60bceb57b7U, 0x3d14d94a3dd74860U,
  0x3dad4d06bdda87e4U, 0xbe1922663e134002U, 0xbe1ecae0bdcc752fU, 0x3da44cd2bdc062c4U,
  0x3d063394bc6d9d43U, 0x3e03e3553e04b02aU, 0xbc88ac2d3cf4d9e7U, 0xbe206fe33be72b6fU,
  0xbde9a3ccbdd13e3dU, 0xbe05126bbd8fc0f3U, 0x3d0594a13e224584U, 0x3cee0c443d20b0f9U,
  0xbe08d9af3dd6f24bU, 0xbdf47883bc85d644U, 0xbe112941bc84960eU, 0x3d9cece1bcfcca70U,
  0xbd57a02c3d9e6ed6U, 0x3bbbcf723e054b60U, 0xbe06c1393c5e32eaU, 0x3df9008cbe0bf515U,
  0xbd99ef40bdb325a6U, 0x3cbdab1abe09380aU, 0x3d4c28cd3cc1226bU, 0x3e05ce7a3d290de2U,
  0x3da7cafbbb12051aU, 0x3dbf9b21bda2594aU, 0xbd3f07f33d20e559U, 0xbd31d47bbd847da9U,
  0xbd39bcdb3c0eb07cU, 0xbe02d4343e1c6ce2U, 0xbded7423be11d4c2U, 0xbc975aebbc3033eaU,
  0xbd7ec5823e1cbfafU, 0x3e19c7053da4929dU, 0x3dbd164a3e1447beU, 0xbb63feb63e05aac8U,
  0xbe0eff073de30661U, 0xbd9b8627bde7f7f5U, 0x3d4ad58b3d3810efU, 0xbe00d3bfbd273870U,
  0x3cad443e3d32511dU, 0xbe16e4dd3db47801U, 0x3df506c1bda4ef78U, 0xbc828c693dc67182U,
  0x3a34f5b83cee18eaU, 0x3badb346bddf4c06U, 0x3c797066bb878e13U, 0x3cd3a9cbbdf3b70eU,
  0xbd5223543d738b92U, 0x3d8b26153c34a778U, 0xbc8c86e13d14df52U, 0x3de73a0fbc6bf7c9U,
  0x3d9cce73bd064f01U, 0xbd5585a1bd051468U, 0x3dd7443f3e09a436U, 0x3dd87432be190bbbU,
  0xbdcc8c5e3b05cf8eU, 0xbdd63890be203b28U, 0x3d08b659bda1c759U, 0x3cbd1bb03df1c2a5U,
  0x3d8278bebd6c2893U, 0xbdcf4437bdc9ba67U, 0x3d87dbf5be1d78a0U, 0x3d408934bc8cda88U,
  0xbd90915e3cbe499dU, 0xbd15f032bd60a804U, 0xbddc67b43dd7d812U, 0x3ce248e0bdfac526U,
  0xbe00bd3e3e05a292U, 0x3e012be73c67d143U, 0xbca834a4bde3ca90U, 0xbd944787bdb522e8U,
  0x3d3cc2d6be161f44U, 0x3d91253cbdcf4b2eU, 0x3d8201c8bdb2fb70U, 0x3d006fd0bcda41c8U,
  0xbd4e4d343df4b84eU, 0x3e0c8d51bd8a222aU, 0xbce4c839bde4e28aU, 0xbdaa3c0ebc8dd64cU,
  0x3e02e2d53c818fdeU, 0xbde08df3bd0cd4eeU, 0x3ccf06573e16189fU, 0xbd8bdac8bdefc46fU,
  0xbdc5ac1a3db4214bU, 0xbe056bbfbd39fa7fU, 0x3c00289f3df69a90U, 0xbe1708853de272c6U,
  0x3d2da3313e22aa4dU, 0x3ccacd7d3debd1e0U, 0x3a8139f5bd17ab7bU, 0xbd511495bd73bf57U,
  0x3dcd046a3dbb6952U, 0xbd5fd73ebd63c5e6U, 0xbd956c36bbac9710U, 0x3e143a6abd4e10ceU,
  0xbd5005e03ce5d7c1U, 0x3d1e02003bdba387U, 0x3db675d5bda6a4a8U, 0xbd8f145abd92afb7U,
  0x3e04d5413dd5cfd9U, 0xbdb917cd3c779f2fU, 0xbc076ff9bba6231eU, 0xbe022ad03d0c17b0U,
  0x3dfbc5e9bd2bdd95U, 0xbe0cd500bd026222U, 0x3b168ebebd29da6eU, 0xbd0337c1bdd8e0e9U,
  0xbd8afc5e3d60ee8fU, 0x3d13d5023e0fe297U, 0x3e05ff88bdda3e2eU, 0xbda630a6bdf12ce3U,
  0xbdacb550bdceea16U, 0x3cec3550bd32b447U, 0xbd87d579bddca697U, 0xbd121401bd8f5ecbU,
  0x3d593c293d1deef1U, 0xbd8d27b8bd6c94b2U, 0x3defeb4c3d033efbU, 0x3deffef0be069fa7U,
  0x3dcbeb323dbeb555U, 0x3da17d1fbdc731ccU, 0xbded4c12be1bc7d1U, 0x3e207dc13cf520a4U,
  0x3bd364393dd50c38U, 0xbc9e0bf1be11f38fU, 0x3de4c894bdda05d5U, 0xbcfcadffbda0ef7fU,
  0xbe0e22b6bde0b602U, 0xbd3af44c3ce7f462U, 0x3dba62acbce09d70U, 0xbe03c7213e0ef8caU,
  0x3def1b17bd1e502cU, 0x3d5202c5bc3c3d46U, 0xbd937c96bc389ff1U, 0xbddc743bbdfdb2c1U,
  0xbe1b50ff3ccb3724U, 0xbdddb30fbdf0aeb8U, 0x3e1c828fbd11a48eU, 0xbdf4057e3c7fc09dU,
  0xbdc951debd4f2700U, 0xbd8c50b23dc1690aU, 0x3d9958de3d07bb52U, 0x3de6a6dabd9a7130U,
  0xbd7efc793cea644bU, 0xbe0454c53d32d367U, 0x3e1a9e9d3e0db4f4U, 0xbe07a80e3c1e4f36U,
  0x3e11ad5b3e12732aU, 0xbb6d7c13bde0212eU, 0xbcb7aec0bdc88e3bU, 0x3dd0f59fbd8ec848U,
  0x3d8e01963d9e41a8U, 0xbcc2b8ecbdbd2698U, 0x3e1d622f3c6d2e52U, 0x3c68f81b3d26cb27U,
  0x3c16db3a3d038f65U, 0x3e020be83e1bcd19U, 0x3b65a39dbe121d78U, 0xbe16fe40bc646c67U,
  0x3cdeff923d6785f3U, 0x3b9f35a03cdd7a95U, 0x3e0c93ff3d42b1f5U, 0xbdbf07ecbce1d73dU,
  0x3d33fbd03cba68f6U, 0x3e0ab1693df16a10U, 0xbde20ced3e0891a1U, 0x3cb469ca3e165ccbU,
  0x3dacfabc3db9a679U, 0x3d36f0063e0de59cU, 0x3cba1879bdb743daU, 0x3d0bf86e3c9c485bU,
  0x3dd9de45be00c0b5U, 0xbd7db052bcc7b536U, 0x3bbe9404bd6af32cU, 0x3d9c01ca3da106e8U,
  0x3c03ec5fbdde8bf0U, 0xbda29b0b3e0dc806U, 0x3c119faebb00f354U, 0x3e09cad1be2556adU,
  0xbd9e479e3e03a119U, 0x3e15982bbd059c7cU, 0xbe07fbc93cc780abU, 0xbe139289bba547e6U,
  0xbd1e3692bd25f0bdU, 0x3e124a24bd9146f5U, 0xbd04c113bdfe4cfcU, 0x3c4298a13e0c9d97U,
  0x3df9b1963dd64378U, 0xbdba47ca3e0e5c96U, 0xbde198aabde64080U, 0x3d8281ac3cdf0ba9U,
  0x3e17f1673da45a16U, 0x3c116fb53d6952d4U, 0xbb4f36d7bc9c7c76U, 0xbe0dab0d3de032c5U,
  0xbddf776abe16a60dU, 0x3d76b225bcef3e8bU, 0xbe0912ca3dd7d1ccU, 0x3e134602bd6ba7f9U,
  0xbdd960ed3c8d9600U, 0x3ddf0b24be09414fU, 0xbdad44dbbd2067c5U, 0xbda28d99bc93ae52U,
  0x3ddb854ebc1b3ae4U, 0xbda81f6b3b986773U, 0xbe1500433da1ffb8U, 0xbd0bcbca3ca9a775U,
  0x3db94949be11aa2cU, 0xbe1b26dc3d5e13b1U, 0xbcfa82d4bd77d76eU, 0x3c12af80bc97594dU,
  0xbdf83d94bdf337a7U, 0xbe20f4803cbd7a34U, 0xbd7e477dbdde0534U, 0xbdd46fbc3d98c681U,
  0x3cfffec13d3332aaU, 0x3df481d43e1da0d1U, 0xbd4cfc9abd81aa9bU, 0x3d129ef43deb8abfU,
  0x3dc228963dd336d8U, 0xbddd79de3e0d8b80U, 0xbe00bbfa3d6f8902U, 0x3e01f6b5bdb79970U,
  0x3d8e51ac3e20c457U, 0x3dc6efd0bd656ce6U, 0x3d7b3cb93d840fb2U, 0xbd5f35e5bd4eaa1aU,
  0xbb456f9e3df4027aU, 0x3c612bebbdc010efU, 0x3dc657bfbe036127U, 0xbd9c9b213d994017U,
  0x3cb196373e0236c9U, 0xbd9a6a68bd4a8437U, 0x3d9cf27cbe04d8c2U, 0x3c2d05e9be0d6e4bU,
  0x3dd84c303e0f2698U, 0xbe145631be0cc24fU, 0x3b142f68be0b9758U, 0x3d80d61a3d694aedU,
  0x3df2d7d1bda0da5cU, 0x3deb6a69be0057c3U, 0x3bbf114abde977dcU, 0x3e055752bdb275f4U,
  0x3e0575013e19d833U, 0x3e1356fabd89ff2eU, 0xbc19f8ee3bfe2189U, 0xbdb4a05d3d20da46U,
  0x3cac668c3de7ab93U, 0xbca2845bbdfd25aeU, 0xbd73dae9bdbc9677U, 0x3d293cabbe1eafb2U,
  0xbbeaf422be2259dcU, 0xbdd885d0bb91c285U, 0x3d8bdaeabcc20ceaU, 0xbd7ddc67be083c65U,
  0x3e1362453e16adf8U, 0xbd3904dcbdad4e06U, 0x3d76250bbd17ad90U, 0xbde509b33de5a5deU,
  0x3d9be9413dbe1690U, 0x3dac5fab3e20df1eU, 0xbdd5f04bbda27e60U, 0x3d998bc7bc3bdf4aU,
  0x3deb44e43d27fb60U, 0x3da9ad5abc5a9e05U, 0x3e14784b3c841d76U, 0x3d2b8bc13d4f4971U,
  0xbe1ef3be3e03fd44U, 0xbabec5fc3d7cc445U, 0x3deaea0d3de13535U, 0x3c55708dbdc3128cU,
  0x3d089d093e05986dU, 0x3bbb7d97bce9ed3cU, 0xbcc2ba163d0a5fbeU, 0xbd6d633a3dff1db9U,
  0x3cae2a723cbe52abU, 0xbdace58dbdbb3c19U, 0xbdfa56df3d2c34ceU, 0x3d91709d3dd80a28U,
  0x3e2387773b9339a7U, 0x3ca55088bcded841U, 0xbd28f9dc3d05f56eU, 0xbe06b976bdac3493U,
  0xbd655417bda5eb6bU, 0xbd8f4ffbbdc3c179U, 0x3dbdb42dbd7b8345U, 0xbdf105df3cfa4893U,
  0x3de374f83caf7301U, 0x3dc04e193d90f51fU, 0x3de124abbd43fb0bU, 0x400097313e23bcb7U,
  0x40471c753fdf5e8cU, 0x40caa1a0405a97cdU, 0x4062a75b40591c12U, 0x406f4cbb3fc4d277U,
  0x40248ede406c9760U, 0x409e1b7a4027da86U, 0x400d06ef404bd085U, 0x40a3cc8c40475f4dU,
  0x4035909340a15c82U, 0xbeabb4a84005fdc3U, 0xbe9ef8c9beabbdb7U, 0xbf033b95be019cdeU,
  0xbf1dc94abee30808U, 0xbf05f9aabe792829U, 0xbf352529bf0e747dU, 0xbf02a491bf69b189U,
  0xbebf6d53bede5377U, 0xbf1cd780bf07a333U, 0xbefdfec2bf3dced9U, 0x3896a0d2beda172dU,
  0xbd367fa0bd5e438dU, 0xbc6442523dadf5a7U, 0x3ccb6127bcafc80fU, 0xbd1ba6863dd932a4U,
  0xbda8c0d2bcc975f7U, 0xbd985a65bdc1be18U, 0x3d1c6388bcf2846eU, 0x3d5034473cc8acc3U,
  0x3d00c24c3c280689U, 0xbda94e83bdc7939aU, 0x3a121e2b3b454411U, 0x3c565e66bc8daea0U,
  0x3d6084fdbd90e380U, 0xbddaf4febcb75033U, 0xbcfc8a8abdc78bcdU, 0x3d452fcc3cbc7106U,
  0xbdd164ddbd6c56e8U, 0xbb8e27733d8ae7cfU, 0x3d7f333cbd0351a8U, 0x3dda8b0f3d9459edU,
  0xbc7c38acbca9c741U, 0x3da4eb8d3cfc9198U, 0x3ddbe9ae3dbe9b28U, 0x3ba8a913bd1229e9U,
  0xbd4aba663bddf2adU, 0x3dbca1dbbd2978feU, 0x3d044512bdb3106fU, 0x3d8d7cbabdb2cd6bU,
  0x3d71440b3d0a7166U, 0x3d87b3993d288f69U, 0x3d8b59b3bdc914d1U, 0xbd0291fabd7407dcU,
  0xbd0f0eb8bda0ddd1U, 0x3cfce3dfbb8e022bU, 0x3dbff58a3bedbc31U, 0x3d30e6d1bcc58fe9U,
  0x3dce03b33cf35b2dU, 0xbd33f1b33d7286cdU, 0x3d8d1d90bd96499fU, 0x3d81b283bdb90ddfU,
  0x3cd78c6f3c539619U, 0x3d2b0912bdb31924U, 0x3d7008ff3dd15a6bU, 0x3cd495c13db62441U,
  0x3d32e6c6bd1daef2U, 0xbc997f543d9fcc98U, 0x3d8b5de0bdea21afU, 0x3ccf76443d9f66cdU,
  0x3d07abc4bd954785U, 0x3d325e44bdcd0d4bU, 0x3d8c1345bc705101U, 0x3dd3b5fcbd1309cbU,
  0xbc19392bbc172a9cU, 0x3c08e4d73bc4be4bU, 0x3d2e94f6bd49e498U, 0x3d75bfc53dcc5c56U,
  0xbd82b5323c89cfc7U, 0x3b83fb513c328a01U, 0x3ccb27093d959ddeU, 0xbdd1c0b23d9819cbU,
  0x3d9acb993de84c99U, 0x3de4b980bd42d0f7U, 0xbd0bfb573df3712aU, 0xbdceb6ad3c9b5042U,
  0x3bf103cebd398eb8U, 0x3dbcf8873d4987d2U, 0x3d840b9fbdc4c124U, 0xbd39a6fbbc30d003U,
  0xbd71d8ac3d2b186fU, 0x3daa475bbdd21a36U, 0x3db76027bda7f8f2U, 0xbcff0e763d5f2618U,
  0xbc433c94bcaaceeaU, 0xbd4c647cbd49d125U, 0x3d440ffabd7d30acU, 0x3dee2213bdc92395U,
  0x3d955b943dca5973U, 0xbdb9d58dbd58e618U, 0x3d952315bd5b73c9U, 0x3c80deaf3ddfe7f9U,
  0x3da7d3b3bdb8fe22U, 0xbd837a753db551f4U, 0xbcc8d293bd0cbd1eU, 0xbd51b48c3d19c904U,
  0xbd8e31c5bdd3f685U, 0x3dd1b37cbd057b5dU, 0xbcc80017bdc9e683U, 0xbd6e30c63dad7f75U,
  0x3c8c7069bb2dfecdU, 0xbbfdc1c3bbd82612U, 0x3d61ae2f3cf163bfU, 0xbcb9ac53bd738e5cU,
  0xbce8a78dbdcf037eU, 0xbdae844cbd11249aU, 0xbd47cf303db7ee61U, 0xbd47f6b73d81f66aU,
  0xbc8c3be4bd0e6c4eU, 0xbd36e399bc97229fU, 0x3ca0fdd53d6f439cU, 0xbac2f004bc1195b7U,
  0xbdb274653d9d16a5U, 0x3dc848a63d6b5d21U, 0x3dcfa9b1bd5ef092U, 0xbb4f08573d7fb8c3U,
  0x3cfce2fcbdbbda49U, 0x3d905c55bdb894bcU, 0x3dd33543bdd01d32U, 0x3de0f7de3dc68d13U,
  0xbcc3f519bd54dad1U, 0x3dcc8f02bc11e9c2U, 0x3db1006ebd75ed75U, 0xbd0c38b0bda96454U,
  0x3d89c276bd8bd858U, 0xb9f44356bdcfe6edU, 0x3d8f74be3c704365U, 0x3d51d9bcbccffa26U,
  0x3d07ebcfbde9faaaU, 0x3d2ac314bbaf5fb2U, 0xbd8ae77cbdd31f4aU, 0xbd4a3d953b191e4bU,
  0x3cf3159dbc00c78aU, 0x3d74f0ecbadf5a33U, 0xbd8f95e43c924b67U, 0xbd5abcd33d621bd5U,
  0xba318d663d3c08eeU, 0xbccef4e1bd370aa8U, 0x3c73a61bbb0db997U, 0x3d0820b83dcc9444U,
  0x3d9cf52d3dbf0d99U, 0x3d968b70bd40a949U, 0xbd3d3ffb3d9f1ac3U, 0x3cea08ff3ca862d7U,
  0x3c5841a9bd013f66U, 0xbd4b23e7bd6d6b21U, 0x3d29cb76bd7ac5baU, 0x3dadd9553cb74281U,
  0xbd563e6c3d7b73f4U, 0x3d534871bcf47729U, 0x3d7d6a3dbd8d0020U, 0xbd82ef4b3d8c73faU,
  0x3db060373dbc12b9U, 0x3d57072ebd2393b9U, 0xbc676c9cbdd7d583U, 0xbdb815b1bdd20196U,
  0x3bc335083d803281U, 0xbb203d913d739635U, 0xbcb8316ebca02be1U, 0xbdb0e2173dc1da80U,
  0x3d8d7b533d8d72ffU, 0x3db1a2d73de00758U, 0x3cf82575bce3ce27U, 0x3d0a0d61bdbf4ab6U,
  0x3c8898fd3cdd0fcdU, 0x3d43671a3db76940U, 0xbccb902f3c998787U, 0x3d52d0023cae96eaU,
  0x3d1111c63c17b20aU, 0x3dca9aa63da5cac6U, 0x3ce18ea63c005cd7U, 0xbd061ca0bd750a46U,
  0x3c5dd2633d3dc56eU, 0xbdd71b8b3bca39fcU, 0xbd7fff99bd8e1d04U, 0xbc9ba5a5bd83a1c4U,
  0x3d4f0a5ebd51923bU, 0x3de35ab13db99629U, 0x3dbfbb503c8dcd20U, 0x3d22ab943d3a641aU,
  0xbd6857eebd3609b6U, 0xbc2c02aebdd50a6fU, 0x3df1e34bbd8bd75cU, 0xbd9185213c2d7776U,
  0xbdbdb22dbd800657U, 0x3d59f289bca3748bU, 0x3c0eead23dba137cU, 0xbce2dd3bbd8a6882U,
  0x3d3274a4bdd78f17U, 0x3c7e4ca5bdab8a5cU, 0x3da95156bdc846fdU, 0x3dbceb1dbd41151fU,
  0xbd987cc3bcdfb1a4U, 0x3d25c05fbd91d37bU, 0xbd5c056a3dc2ced9U, 0xbcd03e0a3dc0cf0dU,
  0xbcefc3ae3d90e026U, 0x3d3df3c4bddacb86U, 0xbdbb0cba3ddaca23U, 0xbdd6c6413d4b75a6U,
  0xbccda4023d20f77cU, 0x3d0a13b1bdc8b358U, 0x3d97f0453dac7126U, 0x3c461c723d1c0a7fU,
  0xbd5757ac3c743c40U, 0x3bc6ef003dd1fd9eU, 0x3bf4322b3dbe10f2U, 0xbdb5c3a3bdac8c08U,
  0x3d6fada1bdd30fb8U, 0xbd86dca7bdc60f24U, 0x3d93b4a13d5ba0d4U, 0x3da0a4253da549a5U,
  0x3d50ca25bceea3c3U, 0xbd230cdf3dcc9d99U, 0xbc7648a3bda6001bU, 0x3ca7a589bace47ffU,
  0xbdc7fa7b3d4ec715U, 0xbb2278653d8015f7U, 0xbd44e41f3dabd451U, 0x3d27b5b1bd1a5713U,
  0xbcfc1ff63d8263dbU, 0xbcaa24fa3d88cbb5U, 0x3da76342bdc5fb23U, 0xbd2a636cbdb3c50eU,
  0xbc56904e3d24d35cU, 0x3ce27b45bd968816U, 0xbdcaf083bbaa9e1fU, 0xbbfd9a80bd97ee9fU,
  0x3d8ee5c73dab9047U, 0xbdd53df13d7d31a8U, 0x3d87a442bcaf1fe6U, 0xbd438bd33d5e8c62U,
  0x3dc26fb13d5f6743U, 0x3da577533d89a724U, 0xbbe0c9b4bdca7598U, 0xbd9e484f3d2f645cU,
  0xbdddd1fabd48d7c8U, 0xbd2250b53d8f6a7eU, 0xbd4afbc2bd4d022fU, 0x3ded9492bdd135e1U,
  0xbc1d2050bda7e975U, 0xbd657bedbc78d632U, 0xbd90fb70bcd65e9aU, 0x3dc09316bcfaf260U,
  0xbc0aeb65bd88263dU, 0x3dafa999bd3f228fU, 0xbd4f7f4abd2b4b48U, 0xbc1ba5f7bd884bf5U,
  0x3d8d7af13d52cb63U, 0x3ddbf9783c9b0a15U, 0xbd94ada93dd3878aU, 0xb9d8ed1b3dc4f861U,
  0x3dcd79ed3dc024a3U, 0xbd9a0756bc820030U, 0xbdd4bbd63da7400aU, 0xbd00c301bd09dc48U,
  0xbd95b98bbdc775ebU, 0xbd3f1c7dbd8d5b0aU, 0x3c7aa7113da6ffbbU, 0xbc96cd563ce46186U,
  0xbd5417fa3d79001fU, 0xbd3b8d9d3d090573U, 0x3db2a5f4bd6c8e9bU, 0x3cb113d1bc33bb2eU,
  0xbda06b863d650ef5U, 0xbce20aa83d6fc9b7U, 0xbddc99cabc91f117U, 0x3d9a0ef7bd39f636U,
  0xbcdf22a0bd9b24c3U, 0xbd25ee27bd16c6ebU, 0xbde9abd53de20acaU, 0xbd465fb33d4c2bfaU,
  0x3d1b732fbde2f875U, 0xbcc401c93cca1390U, 0xbd97b5863cf6d2b5U, 0xbd0292ea3b0cd9fcU,
  0x3dca051d3de300b2U, 0xbdcb1b3fbd3af72dU, 0xbd5def813dc62203U, 0x3d787f69bdca2896U,
  0xbdb085983d8349dcU, 0x3ca5f213bdd243a6U, 0xbdc3c8d5bdbcb098U, 0x3db2d1a4bdd49d96U,
  0xbd8c6f1ebd3d59e6U, 0xbc96ac7f3dc48c62U, 0x3daa03593d8864faU, 0xbd874ae93d52c986U,
  0xbdd3af433d3390baU, 0xbd089500bdd15049U, 0xbdab20a4bdb97d7eU, 0x3d3a7a19bde2f150U,
  0x3dc5700d3c99f23dU, 0xbdb63e123c1b092cU, 0x3d9d9c98bdb80ce3U, 0xbdc923233c90687cU,
  0x3d7803f3bde06b55U, 0xbdb40acb3c181b20U, 0x3c9655cc3ca4c2a7U, 0x3c933212bdb7f8c5U,
  0xbc9c22363dc67924U, 0x3d9feca23dbba681U, 0xbd4089f63cd1fb84U, 0x3c86e8343d742d2dU,
  0xbdcebc23bca30dbaU, 0xbd9c94e83d92e2b6U, 0x3aa712c7bd8e24c7U, 0x3dcf92e9bca0f987U,
  0xbc8a95483c1a3498U, 0x3d3dc9673c209bbcU, 0xbd3f1e22bcb6bf3fU, 0x3c98112bbdc24ce8U,
  0xbddb1df13dafb3d2U, 0xbdaaef83bdb0b6ebU, 0x3ba4ac843d87038eU, 0xbdcd981f3d67c81cU,
  0x3ddbd17d3dc7c6deU, 0xbde6e739bd532cf0U, 0x3c86b197bd40e769U, 0x3c65d4e1bdd43513U,
  0xbda0a8debdae32d7U, 0x3c59c4ba3d8d35ecU, 0xbdb09becbd8fd187U, 0x3bf854ddbde55278U,
  0xbc05a308bc12f254U, 0xbdb928ae3bd3535bU, 0x3d6aeef73daa3dffU, 0xbd75f28cbd11da90U,
  0xbc6da4373ddc2cfaU, 0x3d772a593cd976cbU, 0xbdb8454a3cb0a1b9U, 0xbdb03c1f3d4c31fcU,
  0x3d87d73f3ddb5f24U, 0x3c7bfc18bd4473a6U, 0xbd8b1ed83d21b9fbU, 0x3dcd58f2bd6fa68eU,
  0xbd35208cbd7dc280U, 0x3d5bc420bce09695U, 0xbdb6fa093dbc2eebU, 0xbda762fdbdb07bd7U,
  0x3d8429643ddc04d8U, 0xbdcdcd03bd76acbcU, 0xbd17bdfe3c4d444fU, 0x3da51aae3dcd7342U,
  0xbca5449e3dc761c1U, 0x3ce483dfbca9faebU, 0x3dd30ed5bda095dcU, 0x3b92b758bd059c51U,
  0x3de6aeff3b132901U, 0xba56a542bd2dad0eU, 0x3da2dd523da1bd0aU, 0x3ae09d60bd869d3eU,
  0xbb5269c2bd826ba0U, 0x3d5f105bbdcd287fU, 0xbd1a2f29bbb2d5e1U, 0xbdc6710cbdd75cc3U,
  0x3da2fbd83dad5818U, 0x3d8ac7ff3d27044cU, 0x3cc64514bdc79c6fU, 0x3d7b91fbbcf2e9e3U,
  0xbcbbbd573cf2b668U, 0xbceb8974bcbac542U, 0xbbc18b21bd44efd0U, 0x3a88dcbd3d91c73dU,
  0x3bea69c73d1e5c93U, 0x3dcecad4bd48fcb4U, 0xbc13b7563cc345b3U, 0xbdb31853bc8c55b2U,
  0x3de639a6bc4aee6bU, 0xbd9046e1bdd73b5bU, 0xbd96cb1bbd828796U, 0x3cbb35f23c805cc4U,
  0xbd4a93e93da5e24aU, 0x3da4a292bc6e5adbU, 0x3d8d859c3d909aafU, 0x3dc7c6803db8063cU,
  0x3ddacc78bbd3471aU, 0xbd9bbf8c3d03c9fcU, 0xbd9b9e693cd3e059U, 0xbc4685dd3db9f7d7U,
  0xbdb88bb83d6b8b5eU, 0x3c1f431a3d81a877U, 0x3d37a915bdd4e5bbU, 0xbdb7ae023de7cd17U,
  0x3d778e143dc87614U, 0x3dc1db3e3d428d1dU, 0x3d29ef503d6d9fa6U, 0x3b232146bcea4268U,
  0x3dd4b0e9bd5b1207U, 0xbcee64f43d9ea9fbU, 0x3d6e9a1f3c9162beU, 0x3d7006ad3ddc7ab0U,
  0x3c326f163dbcfb76U, 0xbd98fdb2bdd898a6U, 0x3da297233da23d91U, 0x3ca164a5bc523b51U,
  0xbd3437ebbd65f1f5U, 0xbde11de9bdbef09eU, 0x3d384273bd426c7fU, 0x3db81cdf3d4e7e54U,
  0x3dcc26db3d3da714U, 0xbd3099dabcb29c23U, 0x3d58c1893b6e1267U, 0x3de2455bbdb221cfU,
  0x3c44a0a83ccedda4U, 0x3b82acac3d78bcd6U, 0x3da7f0f9bcdc148bU, 0x3caae6c2bda0c2acU,
  0xbc8ca28e3c0ae6ffU, 0xbd6c1e043ad498ebU, 0x3dc0fdef3d6d4a7eU, 0xbd8f9b563db6f45dU,
  0xbcdfea6a3dbeab87U, 0xbda3b0703dd82d49U, 0xbd0eaa763dcf2d1bU, 0x3d47d392bd01cf48U,
  0x3b8cbf0a3d50c698U, 0xbdd9c1383d01c813U, 0xbd600d7a3da5c428U, 0xbdc8701bbd8afc9cU,
  0x3dbd4fff3d766f78U, 0x3dd673243db59db6U, 0xbd5395f13deaffa2U, 0x3d5c7c9f3dac0ab2U,
  0x3c06d57fbd31a347U, 0xbd7d9add3c73d039U, 0x3c7bedc9bd2851f4U, 0x3dc5a8883c0d0e0bU,
  0x3d633e70bd917e8eU, 0xbd968c70bd06b49fU, 0x3dba866c3d8ec48bU, 0xbd5956d8bd71c0ceU,
  0x3dccd4b43d0c1860U, 0x3de0d922bd9c1fabU, 0xbd85b6b63ceb07c6U, 0x3dbd2aa43de3da86U,
  0x3d0232523dca7b09U, 0xbc411d62bd8d96d9U, 0xbca313963ddf7e39U, 0x3d00c9e73d69fcdbU,
  0xbcc233d7bd7f1d21U, 0xbc89292bbc17d42aU, 0x3cc4f2743ccfe05aU, 0x3d22e34f3dac75e7U,
  0xbc4528bd3c15117eU, 0xbd79139ebda34d95U, 0xbd82f352bb9a4326U, 0x3dd46c673d524736U,
  0x3d00e8543deb090bU, 0x3d83d98abd003572U, 0x3d1ac457bcbf0ab0U, 0x3d2f41a43c1be0b2U,
  0x3d51c412bdcf67abU, 0x3ae1104ebc73a06eU, 0x3d5080e2bd1813d0U, 0xbced40f3bd97460bU,
  0x3ceddc9cbd14a254U, 0x3cd2123ebd6bb738U, 0x3ca98f643d821934U, 0x3dbad1f8bce132b1U,
  0x3ceaa758bd0c4479U, 0x3d25e20abc5668deU, 0xbd9a5b9f3cbdab41U, 0xbda002b53daa847cU,
  0x3d3b1fc33d0774b7U, 0xbb2471093d168b2cU, 0xbd852393bceb961aU, 0xbca076b93d077901U,
  0xbd8cfb8ebc124cf8U, 0xbc9868efbda23f6fU, 0x3d3b344b3dc5bea6U, 0x3dbc9aba3db4552eU,
  0x3cde006a3dc00570U, 0x3daf4f863d9440deU, 0x3c07c151bce46b27U, 0x3d94617abdd7803dU,
  0xbdd9ae1a3d25c255U, 0x3d0ffa28bdba71c2U, 0x3d0c36043d889105U, 0xbda945eb3dc51774U,
  0xbdb2e6de3c5cc4b3U, 0xbdabde9dbd7fa18dU, 0x3dc6c2c2bd2e54a6U, 0xbdb7b939bd7d7e0cU,
  0x3db143a73db09b86U, 0x3d76ab943d98913dU, 0xbdc2825e3c9cde5aU, 0x3dcacbdfbcc1fe67U,
  0xbd8442c0bdc532f4U, 0x3ddbe180bbd18c22U, 0xbc2322de3d06a47cU, 0x3db3d51d3a5f77ecU,
  0xbd90c231bd8b2b4aU, 0xbd83475fbb10f3baU, 0xbde3e3c93c096edaU, 0xbd4c33133d820190U,
  0xbdcc0cb93d713896U, 0xbdc9c373bd2b4c5aU, 0x3d1ffa633d3eecbcU, 0xbdca0f483d449322U,
  0x3dbe802a3c583d2bU, 0x3db3a2123d746981U, 0x3d62353fbc3dba70U, 0x3c41dca03d91239eU,
  0x3d9e81c13dc80e0eU, 0xbdce9f483d95fb36U, 0x3d09f7bc3d9eb94eU, 0x3dcb839e3bb2320cU,
  0xbdc16bb9bdd0825bU, 0x3d8992d4bdc6f6f3U, 0x3da67acbbdce3757U, 0x3d0e74fc3d961aceU,
  0x3d0c532a3998b52fU, 0x3dc0dc873d76dbbbU, 0xbdac5c573d14bc70U, 0xbda870383cf9d89bU,
  0x3cd913103c32ddd5U, 0x3cad37b43d383715U, 0xbd1f345c3ccbc9b6U, 0x3b1d6abf3d696715U,
  0x3d8f6b3dbd3d2985U, 0xbd98bdafbd3eccbfU, 0x3b9250fbbd6bb14dU, 0xbc1fa5523dd2b772U,
  0xbbe5ff9e3dae7242U, 0xbd270f783d9fce8dU, 0x3cd5d131bd44f700U, 0x3d368c273c01ce82U,
  0x3d60ccfdbdadf6a2U, 0xbd466ec3bda4dac6U, 0x3cb824df3d90f4e9U, 0x3d81e5a63d7608a4U,
  0x3d05e314bda23d70U, 0xbd94072fbdae212cU, 0x3d38e48c3d284298U, 0x3db16dff3cbf3879U,
  0xbdc0b1b93d65e7edU, 0xbdc334533d916ad7U, 0xbc82ff7bbc896d0fU, 0xbd83d4c23d8d1eb9U,
  0x3daca5993d7b7049U, 0x3d364f00bab0dd42U, 0xbdb10d8b3d74c236U, 0xbddde316bcd40f18U,
  0x3c86b86abc3197abU, 0xbdc4eb1cbac7d9f4U, 0xbd9fbaf93d384679U, 0x3ddb2acbbb251563U,
  0xbd483f7838b9ebffU, 0x3dbcfeb8bc5ed0d6U, 0x3cfd9c37bcd1b70dU, 0xbd43fdeabd0dbef1U,
  0xbc10e1a03dd76abdU, 0xbdbcaef63d1d3905U, 0xbbdc00c43d0a0b44U, 0x3dca2367bdb7e578U,
  0xbd978cd9bdae1d54U, 0x3cb95e9cbd34ae9dU, 0x3d3e661c3dcc3d4eU, 0xbdb25561bd7174b1U,
  0xbd9e0814bd35ca9bU, 0x3d0cc8d8bd7c2b9fU, 0x3d00acefbcd8cd50U, 0xbd6d26cb3d0adae1U,
  0xbdcd995fbdac50ccU, 0xbdd89295bc08f343U, 0x3d3a257bbda73993U, 0xbbb6f8483c0812f8U,
  0x3c3e601bbdaf4f97U, 0xbcfdcd0ebdd3daf4U, 0x3db4693b3dd9826dU, 0xbd62c7673dba4a34U,
  0x3ce704433cea41fcU, 0x3d93f3f73d7932f0U, 0x3d4221f4bcd6e171U, 0x3da340a63d4a26caU,
  0xbd72cf22bbeb374aU, 0x3d8cc7fc3d6ac38aU, 0xbcc30158bd61b10fU, 0x3d83c149bc6a6372U,
  0x3d0920533dcae449U, 0xbbe470a7bda63e39U, 0x3ccefa56bc8703fdU, 0x3dbf188bbd9c250aU,
  0xbc5e1718bc0e8eedU, 0xbdbecf1d3d9a87e8U, 0xbda6384dbcd6ebf0U, 0xbda60ff93dd9484cU,
  0xbd4a8ea73d85eeedU, 0xbde5f8373dd86d9eU, 0x3dbb1fb3bd6c49b0U, 0x3dcf409fbd8a47b7U,
  0x3d726de33c3f0e02U, 0x3dbcd50bbd8d0747U, 0xbddaff54bd1dce21U, 0x3de2dcd63a95c246U,
  0x3da9bdb53cfcca90U, 0x3d04a209bde250aeU, 0xbd8bf2173cfdd62aU, 0x3dca62923dc28e37U,
  0xbd9c558c3ddd7366U, 0xbd3690f5bdcfa34eU, 0xbd716ec9bc6d7f90U, 0xbc988d783d57bb42U,
  0xbd5d5d8e3daa55feU, 0xbc03047d3ce6b255U, 0x3cbf4a86bcc93fedU, 0xbdd5f05b3de112a8U,
  0x3d24ede0bd3f7e01U, 0xbd23fbbd3d9353bfU, 0xbdb6bc4abc722417U, 0xbc7887663dd5f613U,
  0xbd9818c43d8fb8ccU, 0x3d0ced91bd4e2f91U, 0xbdcda5c33ddcc573U, 0xbd725d47bd911ac7U,
  0x3d8896013dec2118U, 0xbdcf3b5e3db9ef7bU, 0x3da7ba713dd9bb01U, 0xbd263ceb3dc87dd9U,
  0xbd5e317dbca5b999U, 0xbd0b976bbd943cf0U, 0x3dc448f43d3c2cb0U, 0xbc2a18343dc207e9U,
  0xbd1ef733bda50a51U, 0x3d99327bbddeee7dU, 0xbdbb42443ddc734eU, 0xbd36a6a53c5c7eefU,
  0x3db3b64dbd8be214U, 0xbd46ce113b64412bU, 0xbd4adf8f3cc6fabdU, 0x3ca1bfd83de3ce55U,
  0xbd1ff82b3c29ea7dU, 0x3dbcc1d43dc16b45U, 0x3dcd1b353bcafe81U, 0xbda8b1c03d44802aU,
  0xbda075f63d42d391U, 0xbdb4febfbdbe4cc7U, 0x3db3b0173d45e20bU, 0xbbfa3e863c860134U,
  0xbdb95728bd2292afU, 0x3dacfbfabda75a56U, 0x3dc6b9633d21650eU, 0xbd3081313beb314fU,
  0xbca0db193d759de4U, 0x3d4a58b03cb281a3U, 0xbdcc0bd6bd095eaaU, 0xbdd0cd6f3d8b08a0U,
  0x3d0caaa23ddfa796U, 0x3daafe133db04bb2U, 0x3db5f4233d8f1d20U, 0x3db06d1d3dc6d1d8U,
  0xbb58f4293d11f658U, 0x3d61ea2ebdb5026cU, 0x3ce0cfd63b99ec7dU, 0x3d14db2bbcd038bcU,
  0xbd4e25cfbdcc6a79U, 0x3d30ae1a3d017a7aU, 0xbce1b3f1bb13ab3bU, 0x3d87ee853ccc3bbdU,
  0x3cec14c0bd0c70c5U, 0x3d49e6213d825f24U, 0xbd385d33bd5c6a49U, 0x3d60cf23bbc443a6U,
  0x3bc9a8613dbb99c9U, 0x3d71bec73da5b22dU, 0x3d2e45e9bddf5afcU, 0x3dedebefbda66d91U,
  0xbd666a90bd1cc137U, 0x3dd34ec2bbc00ca1U, 0x3db8f3853da5d4a5U, 0xbd58630cbc8dc905U,
  0xbc334ee63cf23dabU, 0x3db6de57bdb4b938U, 0xbdbccacabda707d7U, 0x3d0c845e3dd56288U,
  0xbc2a0647bda26ec7U, 0xbcb21f5d3d46b578U, 0x3dc6881dbdce5b2cU, 0x3d8eb6e1bd225d17U,
  0x3dded349bc08a27cU, 0xbdc74c10bcb5cd83U, 0x3c8966193d6b0ff0U, 0xbd497919bd8ec0e5U,
  0x3cfa299e3da1a47cU, 0xbd114da5bc671eabU, 0xbd50ab223d44fa7dU, 0x3d981a9ebd9d2798U,
  0xbdc7df303dc21bb5U, 0x3cafa867bd80ac58U, 0x3d20a0d63c631f1cU, 0x3d33b7fd3c748d79U,
  0xbd9bc5d8bd29f4c9U, 0x3d7007d33c8e9a95U, 0x3d7535babd011a0bU, 0x3dc7ac0f3da130c4U,
  0xbcefdce03cc6f6c2U, 0xbd118e9d3d06c5e6U, 0x3c99b57ebdde88ccU, 0x3da2b514bd04d9f7U,
  0x3dea3cde3c71fd52U, 0x3d95858bbca9289fU, 0x3dddd92c3da270cdU, 0x3d20e54a3d86a703U,
  0xbddad1343dadbafcU, 0xbd03b73e3c045b10U, 0x3dac0c84bdd7e8f8U, 0xbd0ad7f7bbd8124fU,
  0xbda8f993bc60fcdeU, 0xbc66f737bdbbc8acU, 0xbcb54a653db031dcU, 0x3ccbcd3bbd4d1e12U,
  0xbdd8fe11bdc7cd09U, 0xbceb944f3d262378U, 0x3de00253bd7ea6b7U, 0x3dcd51c9bdaa164dU,
  0xbd3b57b3b87a0b2aU, 0x3bd50938bc02d242U, 0xbd94c5803cf6901cU, 0x3ad799c0bcda50b2U,
  0xbd9af2de3db4a476U, 0xbd9ec664bc352bc7U, 0xbc6c65853da60bdcU, 0xbd0c31ef3cff025cU,
  0xbdbd7e1bbc90fc6bU, 0x3d53ea7f3de9ef5eU, 0xbdcd9b41bd16e7a3U, 0xbd9c0a993cccecccU,
  0xbc97e7783d7be279U, 0xbc8f424c3d990032U, 0x3d1478843d90a2e0U, 0xbdabc894bcbd5b3aU,
  0x3d7c4b51bda275fcU, 0x3d88c2403d26ce69U, 0x3de49489b9b5d09bU, 0xbdbe71273c87975eU,
  0x3cb09e783ca24f13U, 0x3d8fe530bdb7670cU, 0xbd058bc2bc4ad189U, 0x3a688a543dcc4bf4U,
  0xbd9b21673d4a484bU, 0x3cb20d91bda5695bU, 0xbdd0dc713dd2e49fU, 0xbd0b862c3dc0fac7U,
  0xbd8365dabab34ac3U, 0x3cf6dda7bd987b03U, 0xbd8e89e5bb9ca094U, 0x3d76f2663db00f37U,
  0xbce1a65f3d64792bU, 0x3dbdfe1cbd88a5f2U, 0xbda3d370bc6a827bU, 0x3d8961d13da42f76U,
  0xbd92da38bdc7af79U, 0xbdbb51a53d3cda03U, 0xbdd7159f3ba4345fU, 0x3dac32f7bdb77d99U,
  0xbd19f0d1bd3dcf32U, 0xbcb73959bd9c11dcU, 0x3cdb28e43d42625eU, 0xbdcddd68bd0fcd4fU,
  0xbd8b2648bc160c62U, 0x3c0ba8e63db63557U, 0xbd168535bbe4482eU, 0xbdd0aa9cbdaf1fd5U,
  0x3d89bb7e3d6b9a04U, 0xbd87ce953dc4eb6aU, 0xbd197fedbc09cccdU, 0x3c8cfa5b3c7b89ccU,
  0x3caf4b8c3d524a98U, 0x3d8939b0bd1e062cU, 0xbd8293a7bd86c7a5U, 0xbcdef60c3c537df7U,
  0xbdd77500bdc2872bU, 0x3c16179abdcc1924U, 0x3c2b37543cb0a185U, 0x3d9ddc2c3d4c457eU,
  0x3d9cd8c23b069387U, 0xbcc1c4e53cbff913U, 0x3c751e783db96579U, 0xbdca379dbd0620c3U,
  0xbdc0ef9dbd885145U, 0x3d44dcb63a975c88U, 0xbc43b120bdd49ee9U, 0x3db102b8bd3e8716U,
  0xbdd3f0213d414a2dU, 0xbd8741ff3d0baa16U, 0xbd7f8ba6bdd018b3U, 0x3d8fff40bcccd91fU,
  0x3cdba76abdd5e7f5U, 0x3baf0da33d7fceb9U, 0x3abc17803dae8d76U, 0xbd4ffb8a3ccb7812U,
  0xbdddd89bbd757c7bU, 0x3ce24b25bd8050d4U, 0x3d1f75ae3c03644dU, 0x3d8f8d55bd99487fU,
  0x3d7436c2bd348dc7U, 0xbd9ad032bd1dc8a5U, 0xbdc9637abda712b1U, 0x3d14b5d6bd8a7494U,
  0xbd7433debd66d063U, 0xbc8c646e3d200bbfU, 0xbdef6798bd0c3d72U, 0xbce6aa29bda670dbU,
  0xbc18a16c3d0ee877U, 0x3dd2f1c6b9efa4a2U, 0x3da82beebd95fc50U, 0xbca4a4f1bd6e4a7bU,
  0xbd8a82fdbc1a0405U, 0x3becc798bd87b80eU, 0x3d008846bd819fabU, 0xbda6e226bdcd647cU,
  0xbc2a81cabdbd79a0U, 0xbd5c75d9bbf83409U, 0x3ce9fce53d01cef5U, 0xbb9603bf3d7b52ecU,
  0x3d888019bda085c9U, 0xbd8512223d864833U, 0xbd0d705abc0ee8ceU, 0xbdbb583a3daf884eU,
  0x3d6b4931bd51476dU, 0x40860b9ebd805e24U, 0x406a28934016a4f2U, 0x404ddad34019f7aaU,
  0x40858ec04052969eU, 0x404119d14023b77dU, 0x3fbcd90a3fad118eU, 0x4006e1e740310f21U,
  0x4080e4ea403adef6U, 0x402c73cc3fd638eeU, 0x407070474028661cU, 0xbee134504055d729U,
  0xbf3f69d0be726d18U, 0xbeeb6768be326666U, 0xbf216d61be96f82bU, 0xbf03d4febf416e2fU,
  0xbece4420be60996fU, 0xbe8f6cdabf030068U, 0xbe8fa491bf3f1e46U, 0xbe53311abe864254U,
  0xbf184442bedb7f46U, 0x3dda9c80bf4e5219U, 0x3e2cf7fb3e7ae389U, 0x3e9dc83f3e33b799U,
  0x3e2b28503e29a244U, 0x3e8ca4bbbc8a5e25U, 0xbe3aff4fbe56d75fU, 0x3e70c5cb3e30deefU,
  0xbd966ce3be1cd186U, 0x3d9b4ba0be3dec0cU, 0x3d9bcb03be14fc14U, 0x3e856493bd57ea33U,
  0x3cc7f69d3cdc98eeU, 0xbbb733513c55d890U, 0xbcde2deabb0bfbbaU, 0x3d0cc9473cc3c3d3U,
  0xbc9291a6bcb7f432U, 0x3cd451633d118e89U, 0x3c7fce203b9d257aU, 0x3c9576a63cf80cc3U,
  0xbc55140cbce75c24U, 0xbc440374bb72130cU, 0xbbe79d05bca5763cU, 0x3c46524c3d2af47aU,
  0xbbab8ee13bc1de5fU, 0x3d07c6063cadbc17U, 0x3d104ce1bb3df842U, 0xbcef9659bb75860aU,
  0x3ccdce963d12a030U, 0xbcd87e773c62dde5U, 0x3bc0b3d43b0bf2edU, 0x3b6045493b21ce25U,
  0x3cff996c3d321f29U, 0x3d1ec90c3cba8814U, 0xbc28616fbcd8e7a6U, 0x3cbf61f9bc843b31U,
  0xbb938682bc03e4caU, 0x3cd9ca9dbae6765fU, 0x3cf5257dbce04605U, 0xbd0468133a7e1358U,
  0x3a05a9203d237696U, 0x3cdf46a43cbb982dU, 0x3d1c9f6b390ae59dU, 0xbb778fb6bb2267f6U,
  0xbc8efea73d01d720U, 0x3d034bb0bc629f77U, 0xbc88db59bac66c5fU, 0x39b57c03b97b36e7U,
  0x3ccd04f93ccec58cU, 0x3d05e1d63cdda694U, 0x3c9e0172b80f1dc0U, 0xbb4dfccf3cd624ceU,
  0x3b64f8923c6b1dbaU, 0x3a9307f73cf87de8U, 0x3d22d863bcc6a9a9U, 0xbbf4861fbc6027c0U,
  0x3c833349bd03c611U, 0x3d028c1e3c1f57c7U, 0xbbdfd89abc886891U, 0xbc802424bb4aa3d6U,
  0x3cec8d8c3b1a9671U, 0xbc8a02473c15c77cU, 0x3c9eeccc3cf4a9b6U, 0x3b0ace3cbcfda554U,
  0xbc967dbe3cbc8ab9U, 0xbc10955abbec4665U, 0xbce5910d3b842654U, 0x3caaffe2bcc04311U,
  0x3ce9ed0cbc1ae0e3U, 0x3874f2e5bbc9d01bU, 0xbb1246dd3b821945U, 0x3cb9616abccc1587U,
  0x3cb23105bc9aa75eU, 0xbc0607acbcee847bU, 0x3bbf1fdfbc9ebfdcU, 0x3c735eefbca81504U,
  0xbd0e3093bb772914U, 0x3b5d114bbcf61c80U, 0x3d00eb3f3ada14f1U, 0xbcc0ae013ce7a57eU,
  0xbd0794653cb8840eU, 0x3cb97061bc9fdd97U, 0x3c834248ba47459eU, 0x3d1e5503bc6fa230U,
  0xbadfc962bc4b3661U, 0x3d164f9e3c3ddda8U, 0xbc91fdb23cc60d9aU, 0x3c3c5e903cc98935U,
  0xbbdb8df9bc998e3dU, 0xbc4b6274bcee453eU, 0x3cf508303beeebd8U, 0xbc4efd263c68721fU,
  0xbbe96ef6bccf0015U, 0x3ce8e8643ca93f5fU, 0x3c90eb42bb04f0adU, 0xbcac68c6bc623ce4U,
  0x3a4c23c8bc9c06ceU, 0xbc8caf513cf28158U, 0xbc6cc63b3d06fcefU, 0xbd1bfb69bc38083dU,
  0x3cb30e2f3b5a424aU, 0xbb9578323d0ddad6U, 0x3c3bb78cbbe0a0c8U, 0x3d14c043bc9576e1U,
  0x3d1bda58bc0f5d47U, 0xbcab321abcc29e94U, 0x3a8337583c66198aU, 0x3caf6dadbc7100a7U,
  0x3babe155bcc0424aU, 0x3b9f9856bcab24d5U, 0xbbdd7d61ba4ef2b9U, 0x3bf1e33c3ca486aaU,
  0x3d0be32d3cf04850U, 0x3cce1008bca04bf4U, 0x3cea91fdbcdeb71dU, 0x3cb4d99d3c63cd1eU,
  0x3bff657d3c5adab9U, 0xbd044a1fbd0c9a31U, 0x3c207a193d06c81eU, 0xbcd3e7e23c0f73dcU,
  0xbc0fc38ebc90e789U, 0xbc3e6a31bcbacb7bU, 0x3d04a3ab3c6f9b06U, 0xbd06b206bd043f35U,
  0xbcb06d50bcd968f9U, 0xbcd09ed43c905475U, 0xbce969f23b05cd78U, 0xbce6df603cc1994dU,
  0xbcd972463d03a6edU, 0xbc3d7579388d1522U, 0x3c80d5883bc1898fU, 0xbcf0e37fbd0c14b0U,
  0xbb936f283cc974baU, 0x3ca40c1f3914df5cU, 0x3ac2e887bd145338U, 0xbbed1f00bca96b51U,
  0xb93a508b3c12132eU, 0x3b139d433ce3b060U, 0xbc369a843c1ece78U, 0x3cb99256bc69473dU,
  0xbca210223c0b3130U, 0x3c54de04bc64817eU, 0x3b4ff72ebc0bc2daU, 0xbd0aa964bcb4ff6bU,
  0xbc0c55173d036304U, 0x3cf530e2bd0bc56cU, 0x3c66307bbbf31bbeU, 0x3b9f283e3d11ea5cU,
  0x3cf7a18abca819baU, 0x3cb56bb8bcc50e5cU, 0xbb1f62eabd0f2b62U, 0x3d0072e2bb9968c3U,
  0xbb403e2ebca1d5a3U, 0x3c888f693ce7c739U, 0xbc5235bfbc46add1U, 0x3c8c57843cdb8e87U,
  0x3b3f60823d104690U, 0x3c99c7e03d10a3e4U, 0xbcb8fb6e3d1e5740U, 0xbc84260f3d035456U,
  0x39af9d06bd0cf8d3U, 0xbb9803fbbd033753U, 0xbc56b018bc6046c7U, 0x3ccfdbccbc5d5458U,
  0xbce2bbfa3be5891dU, 0xbcf02fabbc832731U, 0x3b2bae2abc976135U, 0x3abf9713bc63b7b6U,
  0xbcd9d4ddbc9a0e49U, 0x3cad57b0bc947399U, 0xbc9f96f43cc3782fU, 0xbd0f368dbca6846fU,
  0x3c1c5f923cc19298U, 0xbd1e0305bc044321U, 0xbc07661fbc7625beU, 0xbb8a1cc8bc1130c6U,
  0xbc94ad4abcf2ea95U, 0xbcf2ee41bc8bdf70U, 0xbc92a7bb3cbf474cU, 0x3ccd28993cfb7e35U,
  0x3c71aa9bbcd4770eU, 0x3ccfb501bd0b51c9U, 0xbbbb29933c0f79fbU, 0x3cc7dc723cd482beU,
  0x3cb81f9abd12aa93U, 0x3caeb88bbcab5a1aU, 0x3c92e758bce4f000U, 0x3be69e63bd0b1dbbU,
  0x3c7435f5bd076b1dU, 0xbca923c2bccc9fc5U, 0xbcf93eeb3c6b37f3U, 0x3cd3b51abb9c3b91U,
  0x3c7e71aebc6cc3b7U, 0x3cbbc539bca242c2U, 0xbcac61773ccc6b6cU, 0xbd0462dbbd1c5b72U,
  0x3c84445bba18c4e2U, 0xbc1d0811bcd87755U, 0x3c7a0833bc7e1f5dU, 0xbcc5c6f63d056f8dU,
  0x3bdf5fb4bd025b3aU, 0x3cbaf6283cda8c1cU, 0x3c76fda7bcbab334U, 0x3bf945d13d09c3d9U,
  0xbcbe00b2bc97bcfcU, 0x3cb7e1b0bcdbf322U, 0x3c924ed43d054a42U, 0xbc097cb9bd06a661U,
  0x3d11fc823cb3cd7cU, 0x3c784f963c933925U, 0xbc41342ebc608aadU, 0x3c0c82e7bb7731b2U,
  0xbce5cb90bca4f6e6U, 0xbcea4fc53cf3a712U, 0xbc9ea7d939eb1e31U, 0x3c40ed90bc5dea93U,
  0xbd157df33cde4f49U, 0xbd1f57743ae5bbcdU, 0xbc5cb9c03c834411U, 0xbcd24b29bccf9697U,
  0x3c829b6b3b6e8076U, 0xbcc34e23bc8fd945U, 0xbc83a7d9bc772b4dU, 0x3b870ce03abde289U,
  0x3cd91e0abbecc8edU, 0x3cbd463b3cdbde29U, 0x3ca62fdb3bb3142eU, 0xbcc029aabc7d1e08U,
  0x3ca35ae3bcce4445U, 0x3c207c2f3c85b4f9U, 0xbcf046943c8ccb3dU, 0xbd00768c3c4f0a2dU,
  0x3b70efe03bad1a21U, 0x3cee7e17bc7dbcbdU, 0xbb8e6bb83ce57fcaU, 0xbce2f45e3cd1bed9U,
  0x3d19c296bd1847bfU, 0xbcdc5481bd21b7fcU, 0xbcffe01d3ac11b97U, 0x3d020a48bcfed850U,
  0x3ca07fcd3d0c5307U, 0x3d0ad47d3c878491U, 0xbc58ff7b3ce774bfU, 0xbc218a54b8c082dcU,
  0x3cb7c8203d08fd0bU, 0x3baa8c253cb00acfU, 0xbce50a783cd5b70aU, 0xbca4d62abb74ddcbU,
  0xbc85d138ba8d29cbU, 0x3ce73c273cb418a0U, 0x3c8d7980bd09a1b4U, 0xbc3eab253b7bc9d5U,
  0xbcdf5062bc93a1a8U, 0xbcf6d688bd0bfa3dU, 0x3a537413bcc47026U, 0x3c8fc7fcbc5d0d38U,
  0xbcc3f7efbd1c3320U, 0xbd05429bbcdc10bbU, 0xbb0c6617bc990046U, 0x3b0edccfbc8ae5b0U,
  0xbcb7ac58bc275fafU, 0xbc54b7babcca95deU, 0x3c828874bcafbceeU, 0xbc7dd39fbd191022U,
  0xbc5416823c3d7a80U, 0x3bfba239bc2a6a7eU, 0xbcb251893b6b7b0dU, 0xbcef9616bcdd575aU,
  0xbc28c699bcc30cb8U, 0xbce71a3d3af97932U, 0x3cf9b458bc131cc5U, 0xbc51d621bd15c517U,
  0x3cf70d9fbcb414c2U, 0xbd1650ec3d06a783U, 0x3cda0e633c95b4a6U, 0xbb7f48e03bfb06e5U,
  0xbbe989723d0442aeU, 0x3c2fa291bcaf1df5U, 0xbcd31b17bd08a09bU, 0xbcf9781cb986b01eU,
  0xbb0255243b8c3d8bU, 0x3cc305733c495b8dU, 0xbccf40aebc98a7d7U, 0xbc46f90f3c27fcb8U,
  0xbc36e2893d16fa1bU, 0xbbdabf203ce8c9adU, 0xbbb5769f3ca32696U, 0x3cc4fd2dbc71b1c8U,
  0x3cc560fb3b2afba2U, 0x3bcd6caa3c379b59U, 0x3ce73d61ba80a85aU, 0x3c3f16193d0c8f03U,
  0xbd0ef5a8bd0a21f2U, 0x3b6fa64dbc350838U, 0x3c3bc929bc4c6c5fU, 0x3c54221ebd2170cdU,
  0x3c9749aebca634edU, 0x3a80301b3d067e54U, 0x3c06331fbd0127b6U, 0x3cddbcaebcb2d263U,
  0x3c43ea503cd4ca5aU, 0xbb9d3d763cc0acd3U, 0xbc9d59bfbca03eb6U, 0xbbc83a7cbc45dad3U,
  0xbbe04bcbbcab111dU, 0xbcd9865dbceaa2f8U, 0x3c8a666cbbbd438bU, 0xbc9105643c65b67aU,
  0xbcb382fb3cff9c75U, 0x3b67f4b6bbca7e21U, 0x3d0a58163c1e2731U, 0x3c99e0acbca4018eU,
  0x3d02ef0a3cfb5d5eU, 0xbcd6467cbd011129U, 0x3cc5560e3d106342U, 0xbcffe46dbb70194cU,
  0xbb3744183c6ab30dU, 0x3d075052bc7c9c53U, 0x3aa859ca3d13f981U, 0xbc777c32bc7ba29aU,
  0xbd07db8abd0354faU, 0x3cb1a768bcf48f72U, 0x3ae878173d0163aeU, 0x3cbab99f3b4483ecU,
  0xbd00fe9ebcac5df5U, 0xbcb9a53d3c97e731U, 0x3cedd2eabb1d7db9U, 0x3cddb78dba161d35U,
  0xbcb031cebbfdddebU, 0xbc359436bc16fbaaU, 0xbc2826033c711ad0U, 0xbcecd4acbc42c5faU,
  0x3d13794d3c995860U, 0x3cdcf2cb3d0a5fe0U, 0xbb992240bcb52081U, 0x3cff4e273cff3ff8U,
  0xbc5f4628bc935803U, 0xbc0764e7bb8c9a87U, 0xbc8ed97cbca20f4aU, 0x3cb050273c673191U,
  0xbcf1942a3cc5a9feU, 0x3d1c3657bbd5df33U, 0x3d1b2df0bc739fe8U, 0x3c931a38bbcdad9eU,
  0xbc3e76d9bc40fe6cU, 0xbb78007dbc66a10fU, 0xbcc733d1bc6e1597U, 0xbcd2cbc53c987bc2U,
  0xbcb38977bc949918U, 0xbc2bb9e3bca8593fU, 0xbc17fb26bbfdcdabU, 0xbcdb5981bd0b16dcU,
  0x3c6450fb3b6530d5U, 0x3cf77667bb9011a3U, 0x3b586f663d1af1bcU, 0x3cd150f13ce125fbU,
  0x3c6569f8bc7ea722U, 0xbcfa71cbb7f5eb8dU, 0xbc365e013c3a8172U, 0xbd1682f2bca07f74U,
  0xbd0fb3ccbc78004aU, 0x3c36b054bcceeaf0U, 0x3c22d292bcee592cU, 0x3cdef433bc706963U,
  0xbd1a441abc82ce3eU, 0x3c85a56d3cca998cU, 0x3c37f544bc1a0287U, 0xbcac52603b235700U,
  0xbd09ab6e3c935a30U, 0x3b73b6b4bc979d95U, 0x3c67d9093c40679bU, 0xbbddf7a9bb6026a1U,
  0xb9f42b643cb1eef3U, 0xbcb726aaba8ba7f5U, 0xbcdee5573cf06b50U, 0x3cf6cd6d3c27834fU,
  0x3bec181f3b38e175U, 0x3a9f9af9bce5118aU, 0x3c59b85d3cff25feU, 0xbc2ee874baf704a3U,
  0x3d16f909bb489252U, 0xbd0cb7713ce6efa0U, 0xbd0d72443d0ac2f1U, 0xbd190d58bc974d66U,
  0x3ad5b8cdbd15b9ccU, 0x3c83ab5fbc9941aaU, 0x3d0659f6bc990fbaU, 0xbccfda023c9e6a6eU,
  0x3a03ac853c136abfU, 0x3bfaaf12bbc3ce6bU, 0x3af0c36fbc829eecU, 0xbd1642cfbcbf56a6U,
  0xbc890b00bd2e6a61U, 0xbca58646bcb2493bU, 0xbad0abdb3ccd02dbU, 0xbce301ef3b092a0cU,
  0xbb4152823c90385fU, 0x3cded532bcdb143bU, 0x3cca1f67bd1502d1U, 0x3bbc53f83c9200caU,
  0x3d085971bc668862U, 0xbd2570f23c8c6f0cU, 0xbcd1a9b339d735e6U, 0xbc8d7b17bbbb021bU,
  0xbc0b9264bc1d320aU, 0xbd23a371bb862cc7U, 0xbb24423e3c35f2f7U, 0x3ccc80993d03d48bU,
  0x3c691fca3bb4702bU, 0xbbd93d4f3cd97dc2U, 0x3cad7db4bd21d48fU, 0x3b3827e33cf33ed9U,
  0xbcaddfd8bd0427d1U, 0x3cdde7b43c9bb6eaU, 0xbc3a130cbb825113U, 0xbc9d62783c7c183fU,
  0xbca26c7e3cc07801U, 0x3cf816dfbd00686aU, 0xbc32b8a23c99fd6bU, 0x3c8310a53b8628f4U,
  0x3c6e2434bd038837U, 0x3ceb3581bc4f4fcfU, 0x3cfaec36bc3a4968U, 0xbb7f6a2a3cd3710eU,
  0xbca56072bd02bfd3U, 0x3b9e0a0ebc85e9b2U, 0xbc97ebafbce2d862U, 0x3c846db8bcf32ce9U,
  0x3b2d36d23ced3435U, 0x3cf858553cf60ec2U, 0xbd02f6e93ca2e93aU, 0x3c8e8720bcb650c8U,
  0xbc126ac03cc9a653U, 0x3bb796933c9b9322U, 0x3c8be3dcbc0ec645U, 0xbd1cf66bbc4032dcU,
  0xbcfec572bd0ab48eU, 0x3c10a5793d061916U, 0x3ca6d3a23c6447a8U, 0xbcbf8be0bc6c137aU,
  0x3cbbe428bcfbc2c0U, 0xbcd5fe03bbf1d772U, 0xbc83b2993a349189U, 0xbc5568d3bd1063f4U,
  0x3ba8c9033c8d0a1dU, 0x3cfca326bc5d6075U, 0x3cd30df9bcd80fe7U, 0xbc4d320a3d07b4caU,
  0xbc90e9c4bcbedae2U, 0xbccf4241bb8617b7U, 0x3d0763fbbcd3d30eU, 0xbc3ca810bcc8e473U,
  0xbd07a2f53c961631U, 0x3c133b99bd163a79U, 0xbc1748013c1ee954U, 0xbd12ee46bb9cea0cU,
  0x3cb119a4bca7a864U, 0x3ce2096fbb1387baU, 0xb9e26a1b3ccac134U, 0x3be2f23b3c821916U,
  0xbd0bf84ebbdf6501U, 0x3ca667a03a97eebdU, 0xbca3f1723bacb2cfU, 0xbcdb0d6abc1de14cU,
  0x3c9d27243c4f864bU, 0xbbef54d63c797f5eU, 0xbbd92c5ebc07aa80U, 0x3d04a1983ce47adcU,
  0x3bf6205a371eb8dcU, 0xbca149073cad4ffdU, 0x3c819944bb27b3c0U, 0x3c5a37853cfaa542U,
  0xbce14df93cc41b05U, 0xbcfd85123cb5caf8U, 0x3c514539bc9e3afbU, 0x3cbdff38bcd2108fU,
  0xbb6623a6bbb8e1f9U, 0x3ca6c9973cfbb96fU, 0x3ce20798bb180f11U, 0x3cb674edbc494c78U,
  0xbd02b7a9bcbfd9e3U, 0xbc88aaf03bb0f7b6U, 0xbc025513baf5bfdcU, 0x3c910bc23b733655U,
  0x3a1361f23d0d93eeU, 0x3c164165bc90a1d5U, 0x3c9f8154bb9cab37U, 0x3d00560cbcce617eU,
  0xbcefe9943b1cbc2dU, 0xbd083ee83c326badU, 0xbd07550b3c4a615fU, 0x3cfaff8cbcf17d9bU,
  0x3c3654c53d0c5debU, 0x3cdcc07ebb5edb86U, 0x3c5ad85c3c1b5546U, 0x38b14a843c050edfU,
  0x3c87c2cbbcdf8978U, 0x3bb3d9bd39815b95U, 0x3d04f88ebb38b514U, 0xbc893dabbc6e40fdU,
  0xbc086f97bc9c1d1cU, 0xbd0759833d04a5a1U, 0x3cbe57b43cb81219U, 0xbc97af99bce01c46U,
  0x3c1da0743bb90c75U, 0xbd0bcb42bcbf3c1dU, 0x3b195981bb27546bU, 0xbcb2ab663c3c0fecU,
  0xbc2ca6293cb6f577U, 0x3cdf6cdabd04911fU, 0x3bbc463abc6dfa3fU, 0xbd0e1619bc507014U,
  0x3cada3003cf9afecU, 0x3ca24c873cca5ecbU, 0xbca965a3bd013117U, 0xbc373236bb5cf3c3U,
  0xbaf7dca53d1421cdU, 0xbc91ea4c3c9e7651U, 0x3cab216ebb3c54e0U, 0xba9ed55cbb5c2d74U,
  0xbba77d523c758187U, 0x3c35caae3cabf74fU, 0x3ca878c4bcd5e4f2U, 0xbcd017abbcebdc05U,
  0xbcc9b287bcf7cdc4U, 0x3bab4461bb79d46fU, 0xbd1650d93c9b0ffcU, 0xbccab802bc22f2d2U,
  0x3bf784fc3ccb8ac2U, 0x3d2298bcbc4a9ba4U, 0xbb8fb797bcbcf546U, 0x3b138dbb3c921d6bU,
  0x3c44053abca36697U, 0xbc0efdcf3c890ffcU, 0xbc57e3493c8660b9U, 0xbcee76a93c2873fdU,
  0x3c9dbc2e3c583b0aU, 0xba9f2d5ebc2b6719U, 0x3cfca854bcee6350U, 0x3d0fc4da3cefba5fU,
  0xbbe260cbbc79d779U, 0xbd060c313c62a787U, 0x3d0b803d3c093734U, 0xbcdf2fb83c6cfb1dU,
  0x3c7830f83c2f0687U, 0xbad724533c3e3519U, 0xbd183470bcbfc907U, 0xbd02f784bb6877ddU,
  0x3cd89a72bc8641b9U, 0x3d119c73bcaaecbfU, 0xbc95682c3d189149U, 0x3c7991debcd58b86U,
  0x3ca9b1e03bb8cf15U, 0x3cfa26633d10071dU, 0xbcf8c73dbce405abU, 0xbcdf4f76bc43d8f0U,
  0x3ca3dbe6bb14c519U, 0x3b1fabadbbfde9ceU, 0x3c6f7bc3bcdc8e9fU, 0xbcb5d02abcbebc0eU,
  0x3d15790a3cd7c4d8U, 0xbba1be283b5bae0cU, 0x3d19e070bca701fdU, 0x3c9a5df7bd0ff229U,
  0xbc6ba7a23cc0d308U, 0xbce04d453d0bb2d9U, 0x3c4200d53c5c5f67U, 0xbd14b46d3c13f012U,
  0xbcbcc41b3ca2cc74U, 0x3cf4e6e23d034322U, 0xbc3ec4f9bcfe5c8bU, 0x3ad02f1d3b74fd0dU,
  0xbcbe66693c14b226U, 0x3cf9a626bb91eda8U, 0xba181efdbc146873U, 0xbcc10a2dbcf3212aU,
  0xbcd007cdbc84730aU, 0xbc9b9bb33cfb8531U, 0x3c1e12243d174dc1U, 0x3c12e1d6bc7381ccU,
  0x3c33e9ddbc71910eU, 0xbc63926fbcbafaebU, 0x3c9e6f5c3cedad91U, 0xbc26fd92bcb60f65U,
  0xbcbfdb923b4cc51cU, 0x3d023a893ce3d4ffU, 0xbcdb9965bcd60d01U, 0xbb0aef5bbc989f29U,
  0x3caef21bbc961a6cU, 0xbbe993f53d00a251U, 0x3cecae3cbc8a286aU, 0xbcce8f063b92a477U,
  0xbcab57acbcb3db8aU, 0xbcb17ab9bce73651U, 0xbcfa585ebbc98eefU, 0xbce1c5293cff64f3U,
  0x3cf529743d146b47U, 0xba23a8aebb60bca6U, 0xbd01f9873d12497dU, 0xbca2ea0fbce8c2edU,
  0x3c01eaeab8ae8efcU, 0x3bdf0faabc1e8ee9U, 0x3c915daf3ba85559U, 0xbcb5371ebd035e43U,
  0x3c9b21f3bce91b9cU, 0x3b4bd72db7f4c3eaU, 0xbbf15ccb3ce310adU, 0x3caf13f2bc8e6aa7U,
  0xbc59e598bad96f48U, 0xbc05fa77bc7794b6U, 0x3d09e7943aa9df89U, 0xbcd467563d164b5aU,
  0x3c44a3563c0ac01cU, 0xbbdcc47ebca4060dU, 0x3bf133c83cadd4b1U, 0xbc8c374f3a687851U,
  0x3d090544bc1cfda8U, 0xbc468c763ca02f22U, 0xbcda6a1a3cfe7cc6U, 0xbd02b2a4ba0dbaf3U,
  0x3c4d5b723ce73bd8U, 0xb9ce956ebc3996fcU, 0xbbef89f63cb9490eU, 0xbc48f82d3c840d88U,
  0x3d035ae73c695f73U, 0xbcd6c4ddbc404a9bU, 0x3c360abc3c8fcb28U, 0xbc1d50bd3c899091U,
  0xbb76d386bccf9dedU, 0xbd079c57bd09a0c6U, 0x3c2b935abd1df520U, 0xb9d61208bcadb55aU,
  0x3c92b0b03cb53776U, 0x3ccb999d3d00afb5U, 0xbcbf60863bf1941dU, 0xbc8a003a3c0af103U,
  0xbccf22843ce11afaU, 0x3c23696f3d07b91dU, 0x3d1254a03bbef79fU, 0xbc4e43213d036b76U,
  0x3ceb7b95bc768c4eU, 0x3c56d2adbc9c9c92U, 0x3d0874553bd1d136U, 0x3d0e0c563c3faae5U,
  0x3c2d53143d0bee89U, 0xbcf58eebb98ab7dcU, 0xbc8fd7293cf0608dU, 0x3cc8ad40bb5e8d83U,
  0x3c4918593d09ba8aU, 0x3d14f63e3b100e54U, 0xbd0dba563c7a19aaU, 0x3d020d703b0748a0U,
  0x3c337fd33cfb9dfdU, 0x3ce039233c0085dcU, 0xbcb5beaaba462272U, 0xbca6fc16bbe7ff89U,
  0x3c09dff1bd1545b2U, 0x3c978d533d03188bU, 0x3cb13a28bcce67d8U, 0xbd0bd466bb712abeU,
  0xbca842ecbce13223U, 0x3d058d97bc40bbbeU, 0xbd1238b13c125b5eU, 0xbbe727bcbcdb9bb9U,
  0x3ace97e0bcd210ffU, 0xbcdfe39dbc629a89U, 0xbc6b4c1639fca5faU, 0x3c9107c4bb507c42U,
  0x3bbf19843ca6e769U, 0x3c98be62bc9687a5U, 0xbceefc083d0a5b6bU, 0x3aef072cbcd2615bU,
  0x3a4e56d7bc1a6eb0U, 0x3c12fa64bc3a4507U, 0xbc861b80bcb54a44U, 0x3d0def54bc09b2fdU,
  0x3cdc9e17bae50c28U, 0x3c13a8d1bce78ee0U, 0x3d19f0623ce0eba7U, 0x3bd32351bb8afccdU,
  0x3d1911463c104f2bU, 0xbd1d98a63d0ebdc0U, 0x3c8bf7d7bc87c32eU, 0x3bed189cbbb6a2c0U,
  0x3b644b5dbcc901bbU, 0xbd0eb06e3a9d7a87U, 0xbc9011ab3b0ef573U, 0xbc865ad83ce9f7abU,
  0xbc6606e1bd08619aU, 0xbd1f31e7b921abbeU, 0x3d1f76e5bcca1753U, 0x3cb4bf083cc0803fU,
  0xbbf25d5c3cf24130U, 0xbc86470b3c970b44U, 0xbcbcf8f33c9fd386U, 0xbcbb016e3c899a46U,
  0xbcb24026bca12f80U, 0x3bd9ecf7bceb87f1U, 0x3d0392133c608eb6U, 0xbcfb9ef4bcc809c5U,
  0x3bf90361bd0a1343U, 0xbb50d93bbc992fb4U, 0x3b80b1af3c6bee4dU, 0xbc722bc9bcc41614U,
  0x3c5e28d4bbe1ee29U, 0xbcd7dd553c653131U, 0x3ce07b48bba0c194U, 0x3c4d603e3c68b1e1U,
  0x3cf045deb7b9abe6U, 0xbcc7e568bc8dbc78U, 0xbd0d09e73cb7fa74U, 0xbc8d5d293d0e4839U,
  0x3a81f5babcdde4fbU, 0x3b20073dbcc6cdf9U, 0xbce76c5cbc8fcc35U, 0x3bc40a553cf01ee7U,
  0xbb0812753cf6f157U, 0x3d00f284bcd9da97U, 0x3c005b86bcf5abcfU, 0x3ce8ba7ebcfb03f2U,
  0x3ccfb0fdbcf25d7cU, 0x3c14759d3d13877cU, 0x3cf0433f3d1e918eU, 0x3c6e576fbcc4b438U,
  0x3ccbbdfcbcb4d5ceU, 0xbcfad675bc24d95dU, 0xbbe6858c3c669ddaU, 0xbccdb41f3cab4063U,
  0xbbb6137d3b5b0b3cU, 0xbcdf85f7bc8d1f3fU, 0xbcef34bc3c8dd3e9U, 0x3c63bb59bd036a74U,
  0xbb5c04b13ca28e46U, 0x3d0bae5d3a862c6fU, 0xbd13e5f5bc066413U, 0x3d152da43b983e5cU,
  0xbb72d8143c78928eU, 0x3ca360943d163a24U, 0x3d0e446fbcf9812eU, 0xbc5f3d2d3be49a9dU,
  0xbd0dfbd3bc5cc3dbU, 0xbc92e98d3cefcd6eU, 0xbad450bd3baebcabU, 0x3d0c3ff93c958662U,
  0xbc1051abbcecc35aU, 0xbcd2274ebd01ce09U, 0xbcf692453ceda5fbU, 0x3d0bd8bbbca88d1dU,
  0xbd0851a33d025504U, 0xbbff3469bcb4c0fbU, 0xbbbd88d3bb8336b2U, 0xbb494d953cdab743U,
  0xbcc2b800bc50ed12U, 0xbcb06fab3ceea75aU, 0xbca083c9bca33698U, 0xbcb7f5ecbd22189dU,
  0xbd04e3d2bc1e1798U, 0x3c2a9d003c856f00U, 0xbd1d4f0ebac5a9d8U, 0x3cbf19f23bc20697U,
  0xbb9c1cdf3c8fc153U, 0x3c3e5a4c3be5bcfaU, 0xbd0be2b5bd0ef8d5U, 0xbcc73adabc6cabdfU,
  0x3b8a34643d05084bU, 0x3cdb3408bd04bfa9U, 0xbca8459ebaf6e955U, 0xbcf815f4bd0d387bU,
  0x3c9683b23c1e5377U, 0xbd03895cbad1dfa1U, 0xbd18ef943cea524dU, 0x3c83c9423abb78d0U,
  0x3cf962703aabef59U, 0xbca7dc81bcf4407bU, 0xbcaf12793c2fff18U, 0x3d004e50bd0f4e68U,
  0xbcda56d1bbcaae3cU, 0xbc946cbfbc32c50aU, 0xbcc35295bd086df0U, 0x3d151b30bcd0410cU,
  0x3cb391fb3c83663eU, 0xbd12f56bbccf2f7fU, 0xbd0a2c1ebce70d92U, 0x3b3295303b96006eU,
  0xbbe559d93c35e118U, 0xbd0af89dbd0cb662U, 0xbc38948f3c913ee3U, 0x3c987d973c8f3871U,
  0xbbb72b60bcd04c3cU, 0xbcde1282bd0d7f2bU, 0xbca4368abb30a889U, 0x3c980559bc3d4fa8U,
  0xbcd6e7c5bbac9bf2U, 0xbd0016173bd4eaebU, 0xbc30443fbba5d946U, 0x3c3730d0bcc2a12eU,
  0x3cb576473c833852U, 0xbc7ab0d83d21d763U, 0x3cc232503c9bbcccU, 0xbcf0cd11bd051a53U,
  0x3c71df53bc2756cfU, 0xbc53e8a9bcb2f208U, 0xbcd7414b3c8d7b2fU, 0xbbd3ae1fbc0bd90cU,
  0x3bd2eba93cf5f872U, 0x3c22c4b53c6f144bU, 0xbcf8f9dcbc325459U, 0xbc4368d23c6f4e2aU,
  0x3cdac029bc9a3979U, 0xbb8034c53ccac37cU, 0x3b1a40c03cde7a39U, 0xbd13c9e1bcda0f5dU,
  0x3b517d9abd0908adU, 0xbc6b232dbca86717U, 0x3cd90eefbcc9eae3U, 0x3b06e89dbc8473deU,
  0x3ce8d018bcc52074U, 0xbc17d1b13c9d8b16U, 0x3b39374cbc3a4a4eU, 0xbd138e76bc754db4U,
  0xbc0cea15bb049bbeU, 0x3c21c682bc2b73deU, 0xbd053405bc92c98aU, 0xbc7ab46839f7aa14U,
  0xbc9564d3bcde9bc6U, 0x3b7d5fc23c091b17U, 0xbcb669d63d0e0c32U, 0xbcd90dabba913c17U,
  0x3c8e332fbd287525U, 0xbd0e51b9bc06ea6dU, 0x3cedc7b73ccd6e5aU, 0xbc918e77bcc2e11dU,
  0xbce51b263c1bdb02U, 0xbc10b93fbd02faceU, 0x3d03da3d3c84d059U, 0xbccc5a473c5ac956U,
  0x3c7824843bc70348U, 0x3c7e5fdebc043e3cU, 0xbc07aa143ca3762bU, 0x3c70e666bc86d3a9U,
  0xbcd97ae1bd0fa935U, 0xbab3daa13c8c8545U, 0x3b30f6953c40ff0bU, 0xbb29e678bc74883fU,
  0x3c549e2ebc91d4eaU, 0xbc9db481bce67068U, 0xbce0fff43bd48a79U, 0x3b0627393c5e3bc0U,
  0xbc8880243c68872eU, 0xbcd6acc9bb8a58b3U, 0x3c9c47f4bd03ab8cU, 0xbd0608d7bc1f8a51U,
  0x3cab4c3fbce3dadeU, 0xbd1dd5063ad0cea1U, 0xbc48e8a93cf9a97dU, 0xbc9a14b53c2a09fcU,
  0xbc89575e3ca9efcdU, 0x3ccee05abc855063U, 0x3c9dfb5abc9b0379U, 0x3d0b5902bc85fb24U,
  0xbccaa0283d0d4094U, 0xbc210e4c3ba6dbf8U, 0x3c2b687e3a64f5beU, 0xbc9ffb293cb808b7U,
  0x3d15a39d3cf2cc40U, 0xbcbdd4153cabf8d5U, 0x3cefa95a3d04ff33U, 0xbccf1fa73c5cd5ccU,
  0xbcb2034e3bdb0a2eU, 0x3ce4a7d9bc7242f2U, 0xbd066a7bbd0fc0ecU, 0xbc81f53bbcfee4c2U,
  0x3c9a60eb3ca1b803U, 0xbd140839bc82b02fU, 0x3d08ae6c3c00e5bfU, 0x3c886858bc82ab94U,
  0x3ce9fc3c3bfc29a1U, 0xbccb8d93bcfd6c21U, 0xbcf12616bccc6fd5U, 0x3c9001c53c6db161U,
  0x3c1b29013cbecbb2U, 0x3c032cf53b22db37U, 0x3c61e99b3c4aa2fcU, 0xbb208ea03d140b16U,
  0xbc942b563cb317dbU, 0x3c921c4e39cfe29fU, 0xbc61b221bc09a186U, 0xbc7b83683c58aae3U,
  0x3caa8acb3cdd4347U, 0xbc1cb745bbaf3247U, 0xbb29de7f3c985adfU, 0x3cae8b41bc0b8b09U,
  0xbb177d123d0556faU, 0xbbe843093c3eb4b3U, 0xbbcd6514bd12f43bU, 0x3bc6241fbc36ecdfU,
  0xbbeaa3c93b81bc34U, 0xbd101ff03cbd6f4eU, 0x3cc84423bc16fd8fU, 0x3d07e5e0bc73ae7cU,
  0xbba58a2d3d0e9eafU, 0x3c9048b6bd03ab03U, 0x3d05208b3c9d0d88U, 0x3d06d54b3c027a95U,
  0x3cc2a71a3c77a914U, 0x3cfe2d4d3ccb3ec5U, 0x3c184a1e3b634119U, 0x3c654e08bc2ac609U,
  0xbca1edaabc62b085U, 0xbc85a5303b272dc1U, 0x3b8cfc853cc03d81U, 0x3bb6b85d3af6c5a3U,
  0xbbb49f9a3cd2b19fU, 0xbc6c1b06bcb5b404U, 0x3c8837df3d082c52U, 0xbccc699c3c1d1ebaU,
  0xbc469b0c3d049e7fU, 0x3d0b4603bc513540U, 0x3ccba727bca5a73cU, 0x3cb88b603bc38294U,
  0xbbd48e38bc3798c6U, 0x3cafc77dbc3391eeU, 0xbcda792f3ce286bbU, 0x3cc7bb7e3c4b6bf4U,
  0x3d05950bbc94cd42U, 0x3d19838abbca5acbU, 0xbae0feba3cec4b08U, 0x3be40d12bc0610d9U,
  0xbd076d2fbae77a6fU, 0xbc285e2abce9221aU, 0x3ad567053ccd8ef5U, 0xbccb2762bcc3d383U,
  0x3c2fc78d3ce1bafcU, 0xbcf8228dbc4ff3ccU, 0xbceef394bc4bed11U, 0x3c892df9bca9b6a2U,
  0x3cb981143c296a78U, 0xbbde2ca83c43afa6U, 0xbbd8a0213cf1f630U, 0x3b3d62e4bcf7247bU,
  0xbd1148da3bac218cU, 0xbd07edfa3d13dfe8U, 0x3a95e6733cc28dcaU, 0xbcfcb0683c4af191U,
  0xbcc92a553d0eee88U, 0xbca1c330bbd4efdfU, 0x3cfbf18f3ccf0c5aU, 0x3d02f1a83c8e886bU,
  0x38eb12763b882d10U, 0x3ce448f63c8e85fbU, 0xbbd77860bcb6fb65U, 0xbcf9d78c3cc28d3fU,
  0x3bc4dcee3cee1599U, 0xbbc3bb453cf6d2f9U, 0xbcc182183c5ca564U, 0x3cced67bbcae9a97U,
  0x3ca241ecbb8c36bcU, 0x3cad60da3aeeb8abU, 0xbc1485bf3ca95b3eU, 0x3bd717b1bd010d01U,
  0x3bcec4973a7ab5b8U, 0xbcc3fbc2ba374373U, 0xbc2f2af9bb61fa65U, 0x3ca529a7bbd17f15U,
  0x3cfc462c3cdd93f5U, 0x3b570f6a3d18bb74U, 0x3b48d0bd3c8cc042U, 0x3bbe186abd0877adU,
  0xbd0b8edc3ce5ab58U, 0x3ca9cb09bbd2d9eaU, 0x3d03cb41bcf12cbdU, 0x3c07d36d3ade69a4U,
  0x3d0a5eed3cbdc321U, 0xbad0ab983cf8ceb3U, 0xbbb2812e3cbf2a3aU, 0x3c8ed5c43c86d58eU,
  0x3d0d24493d17bdb3U, 0x3ce1f528bca6ab62U, 0x3ccf16093cc2febaU, 0x3cde6587bcbd9fcbU,
  0xbd0e45c7bcd6bafdU, 0x3cc4602d3c4be80cU, 0xbce0848ebcf20fb6U, 0xbcf42247bb1f2471U,
  0xbd0bda483c76df64U, 0x3cb5b6a6b9465197U, 0xbbfebc183c9e3747U, 0xbcc5f73e3ce10241U,
  0xbcc35c203bd20237U, 0xbc67a7033c93454cU, 0xbbb61c4b3ba2cd87U, 0xbbe5ecea3a9243baU,
  0xbb32ceb0bccf6404U, 0xbcf0001f3c6147f6U, 0xbc02f9f0bd1323eaU, 0xbd0a8c7d3bb44fafU,
  0xbce49626bd0f6b9cU, 0x3c76ef46bc61fe47U, 0x3d0e9971bcf2e277U, 0x3aa90bb73cb1a41dU,
  0x3cc45aa23ce404ccU, 0x3cfcf0b93c68e439U, 0xbc02d2743d14cf25U, 0x3a8fac373c8dbbc2U,
  0x3c3e41d2bcddd000U, 0x3c1746e5bc760824U, 0xbcd59e66bc95fbe1U, 0x3cdfc673ba8a75eeU,
  0x3d17ae1cbc8ba1a3U, 0xbbe9cd023c5f1721U, 0x3c2525ab3c8e05caU, 0xbcdba7d9bb11945fU,
  0x3bf0d5ddbba78ffbU, 0xbc84b4383c671d22U, 0x3cd9a630bcd36fa4U, 0xbcc2c285bccb0c85U,
  0xbc85bcf2bc256300U, 0xbd17dacb3d0f7ceeU, 0x3ce9b3b1bb90bad6U, 0x3ce0a45fbd1de334U,
  0x3ccc40153a6dfc96U, 0x3ccb520fbcda28a3U, 0xbcaf37423c733623U, 0xbbf94eda3c93db73U,
  0x3d0ab2d03cf1c896U, 0xbcbefd77bbdbba0cU, 0xbb49cb663b9837aeU, 0xbc334beabcdede13U,
  0x3cc056e6bc8a8b87U, 0xbd02a63bbce80a13U, 0xbbd54e3c3cd3e355U, 0x3cac905dbbc0734fU,
  0xbc846d48bccf925aU, 0xbbfc1eeb3ce9ef2bU, 0x3bdb4982bc93e47dU, 0x3d0aa0153c1ecc08U,
  0x3c62e0333cfdd05cU, 0x3c92629d3a3fa32aU, 0xbb4c20e23cccf7d9U, 0x3cc2d8123b0601b1U,
  0xbba54187bcc36974U, 0x3cb72ef3bbd334dfU, 0xbcee3c2cbce10c6cU, 0xbbb36347bca7e297U,
  0x3c2c31153cdfe0e3U, 0xbc23d71dbd079eb6U, 0x3b352e5a3bfe4f73U, 0xbd0d75943cbfa85eU,
  0x3a3c58473d0ac40cU, 0xbcb6e69c3be56afbU, 0xbbc04e31bc66d41fU, 0x3d0e2b08bc9117daU,
  0x3cb22a423d068f83U, 0x3c79fca9bc4aa77eU, 0xbc02b4fd3be4fc95U, 0x3cdd646fbd0abca7U,
  0xba033210bd16415fU, 0x3cbd8304bd16b082U, 0x3d0569b6bc4402f6U, 0x3a39332ebcdf93a6U,
  0x3d132fd3b9b53e79U, 0xbc044fe5bc3e1122U, 0xba0ac2863d006411U, 0x3b38ae2cba359802U,
  0xbbc3c0ff3a335cdaU, 0xbc572eaa3c81a5c8U, 0x3b5e9991bd1ab31eU, 0x3c89f8a1bcc97397U,
  0x3c4a2b6fbc8aac8dU, 0x3cc6816f3cd2c1fbU, 0xbd13e2033c25a56bU, 0x3c9827963be86457U,
  0xbca056703d034e12U, 0xbcdc6c6fbcdadbddU, 0xbbd2d1e4bc8aaf47U, 0x3c71751ebacf3ad7U,
  0x3c74e7ed3cd07062U, 0x3d0db5e33cc66db1U, 0xbbf5f1e9bd07159fU, 0x3c37c0acbc829808U,
  0xbbeeb069bb281029U, 0x3c20c91b3cc0909eU, 0xbbc7bf433c48d693U, 0xbb867f763b2e54a3U,
  0xbc8e5ac4bcf20719U, 0x3ba8eb8f3bc60d68U, 0xbcdc6542bc8eed55U, 0xbcc50cb73c8e65a8U,
  0x3cd76b92bcba91a2U, 0x3cac0b49bc9b69ebU, 0x3cb975993adebbdfU, 0x3ce9ece23d14be4bU,
  0xbd134395bc59824eU, 0xbb87c3ebbabe21abU, 0x3c6fe9c3bd1d4e95U, 0xbcfa2bd4bba72806U,
  0x3b1ebc4a3c7cad4eU, 0xbd07dcf83ceb962bU, 0xbc7b63cf3cfe8846U, 0xbc7d5ef23ab8d95dU,
  0x3cd4e4debcdb4c9fU, 0xbc9475c6bd0a3449U, 0x3bd4c3983d07bfc7U, 0xbc904c193c30d329U,
  0x3cd2e40cbc791866U, 0xbbbb9fae3b847d92U, 0xbc805dcbbc9a6579U, 0xbcda3fcdbaf32b92U,
  0x3cf02065bbb58bf4U, 0xbd1a37dd3c26a1abU, 0x3c56b845bc4635feU, 0x3cbd4c64bd0b93a8U,
  0xbc5ea7bebcbea564U, 0xba8ef7cfbb415ea7U, 0xbcae7345bce93b94U, 0xbcd603dc3ced2b76U,
  0x3af93702bccd3076U, 0xbb562ee73d04fb02U, 0x3ce25d55bd057400U, 0x3caebd703cf8eceaU,
  0xbcc43d54ba3c6f20U, 0x3ccc354f3cb1f82cU, 0x3cedd9b53cc0ca96U, 0xbc914cdc3c260ae0U,
  0x3c9cdb18bc80a0d7U, 0xbc799062bbcf018eU, 0x3d076d7c3d0ee3a9U, 0x3c681eb83d167861U,
  0x3b7e2126bd1dc9cdU, 0x3c3f4ed8bd030225U, 0xbc7056a93cb6011aU, 0x3c7dc2c2bc544245U,
  0x3cb52b2c3cb989d8U, 0xbb59b1e03d07a25dU, 0x3c70b66e3b3d9273U, 0x3cbaeb6bbd0ebbe3U,
  0x3d062c3d3cfdf81bU, 0xbd0d1650bcf58340U, 0xbceebc6abd1c72ccU, 0xbd02a8c2bcd37d31U,
  0xbcd0ea44bb326389U, 0x3cc013bdbc78bbb2U, 0x3c13137a3be22032U, 0xbca46478bc4b5f74U,
  0x3ba1f2353cae6a63U, 0xbd15784dbc34db15U, 0xbb252015390e9ba8U, 0xbd1c4376bc6cf058U,
  0xbc5c6f1ebc57355aU, 0xbd0db2b83b8900fcU, 0xbc5a00183c3de8f4U, 0xbcce8ffdbd026196U,
  0x3c8888833b10fcffU, 0x3b3029b33b9967e8U, 0xbce4f9f43c9df62bU, 0xbcef7f75bcfc54f2U,
  0x3ba66e55bbf3e78bU, 0x3b4f539e3c091734U, 0x3d0896a23cf25560U, 0xbce1257a3cc3dea8U,
  0x3bd5fdda3a90402cU, 0x3caed7cbbb350317U, 0x3cb73a6f3c044d63U, 0xbd0661ddbd0d4b01U,
  0xbceccbd0bc886180U, 0x3bdbf1f7bc63f9bfU, 0xbcb26c173b9fd908U, 0xbc7b7d093ce20794U,
  0xbd26bc5e3d12f2d1U, 0xbcea02ba3c02d8ebU, 0xbcd157483ca0c59bU, 0x3bc9f11b3d05fd06U,
  0x3c815a363cbe185cU, 0xb9d445d5bce3dd9cU, 0x3cf92d0bbc910d7dU, 0x3ccea08fbb16d393U,
  0xbc85a63c3d0bfc2bU, 0xbb512d0cbcfe3585U, 0x3b2b8b0abcc34fe2U, 0x3cf1d6ce39acd60dU,
  0xbc603df83be5038fU, 0xbbf997043c07f6b6U, 0xbcfe6badbc4c7dc4U, 0xbc43d54d3cde8a81U,
  0xbc651a823bfaa179U, 0x3b79ceb1bcb849d2U, 0x3d0727bbbcf98000U, 0xbc3a3794bd0609f2U,
  0xbbe865c23b94a974U, 0x3cb04520bbb08141U, 0x3d0b99793c981885U, 0xbc829cfd3c2b9dbcU,
  0x3cc28f3b3af29fa3U, 0xb8bc99bebcf34b3aU, 0xbcc76c1b3a2f1095U, 0xb8be24223cd77153U,
  0xbb60cca9bd148eefU, 0x3c1a2cf2bba99060U, 0x3d07131c3c25d1a8U, 0xbc8578213c1141f8U,
  0x3c95b04fbad7afccU, 0xbc61005d3c94a45bU, 0xbcd9179abca9533eU, 0xbc2c741c3a79eb9fU,
  0xbb5bbffe3b0f17e8U, 0xbd1845d63ba7ba77U, 0xbc70d7fe3bf6ad17U, 0x3b92e0efbcfeb808U,
  0xbca7f8ddbcc620d0U, 0xbcb269f6bd264bacU, 0xbabbbbdb3ca69810U, 0xbc04d5593c9a4b5eU,
  0x3d07f329bc14c429U, 0xb70768653afecfabU, 0xbc074cc0bcdd5291U, 0xbc19c641bd1a5f9aU,
  0xbc37722ebcae4038U, 0xbce31bf83d15d98bU, 0xbcce2e9a3c7fc86cU, 0x3d19f9e9bd04152bU,
  0x3b74a9b73cbd1b00U, 0x3c5abf8ebd178803U, 0xba8833ac3c7ff3b8U, 0x3cb3d6e1bbddfce4U,
  0x3a7f3dd33cc9af76U, 0x3c8f604abd0e9e6cU, 0xbca78a7e3cbc124cU, 0x3b2928d8bc85e7eaU,
  0xba0b0c63bb03f8dbU, 0x3c217012bc2c27b8U, 0x3c6180fcbc6df3cdU, 0xbd0b04383d0410d5U,
  0x3baa40babb9782e0U, 0x3cdd78c93d0bc540U, 0x3cff0ecb3cb94405U, 0xbc3921b5bb098bf5U,
  0x3cf473f13cc4961bU, 0x3ba56beb3c23b4d0U, 0xbb7264053bc93b2bU, 0x3cf0c56a3c9b525fU,
  0xbcb26f1cba3c9defU, 0xbc68769e3c8a5307U, 0xbb935fb83d0a98fdU, 0x3be47320bc51a4a5U,
  0x3bd27d12bbadaa80U, 0xbc178f41bcc51b50U, 0x3b18089bba99e8ebU, 0xbd0170e73c912efeU,
  0xbcf1366b3cfc0ce4U, 0xbca848b4bcea0f14U, 0x3cfef09b3d0f62d6U, 0x3d15d83ebc03b812U,
  0xbc6f63d53cf32b03U, 0xbc9e61513c82a147U, 0xb9afe947bc97202bU, 0x3c902bcdbbdb370dU,
  0xbc5377793cea6221U, 0xbc105f5fbc256b70U, 0x3d189f27bbb87113U, 0x3ce4731b3ce02407U,
  0x3d0a5887bc86ce21U, 0xbc6928e1bd018dceU, 0x3cd5182dbcd6713cU, 0x3c0302d13d0ca5b1U,
  0xbbfb4b7abb608f18U, 0xbae089f7bc21b682U, 0x3c3c1c303c8b5c96U, 0xbc42bb7e3c096f1fU,
  0xbcc5860dbcb7f1e2U, 0x3d10e3773c3365abU, 0xbc45ff263c932dd8U, 0x3c967f35bca4194cU,
  0xbce0aff9bcc1b869U, 0x3cda3ecf3cada80fU, 0xbc4525843cc2fa81U, 0xbbd30d8bbcfb0549U,
  0x3ce044a9bc0bba4eU, 0x3b9bfd83bc2c4a04U, 0xbcfe3694394a4223U, 0x3c712238bd149e45U,
  0x3cdf0534bbc0e9f2U, 0x3cb9da07bc10ffdaU, 0xbbffe08c3cda7c8bU, 0x3d13056f3bdf2664U,
  0xbcfd6cd03d18d732U, 0x3c844f2fbc110903U, 0x3cea473fbc85e0f1U, 0xbc2cd0ba3b23ca81U,
  0xbacdb1313d114246U, 0xbb2e191cbc6268caU, 0xbcff5f1f3ce7209eU, 0x3d0abe22bc44da53U,
  0x3d057bb4bcff9decU, 0xbbe2270f3ce28081U, 0xbc9bc8043d1137ddU, 0xbc9c65663cd4ccdbU,
  0x3c8c78c7bc80fb84U, 0x3d1ca4193c28c37fU, 0x3c3e2462bcb2c35aU, 0xb98f5e1e3c31cfcdU,
  0xbd0b796e3c1f565fU, 0x3b11da3a3a0b10f4U, 0xbd041010bc529bf3U, 0x3caf2d4d3bf82bedU,
  0xbd0b2bd338f2979aU, 0xbbe038913ce83615U, 0x3d05f79f3cdcf271U, 0x3d1131113c0048a6U,
  0x3d0618b23cdd9e40U, 0x3c98df523c648d0bU, 0xbcd473663cb133c9U, 0x3cbf61833d081c79U,
  0x3c996c1b3cabece7U, 0x3c8798e03ca67b21U, 0x3c95bc333cb07edfU, 0xbafafee7bcb3aa82U,
  0x3b7ce61e3cb3bf6aU, 0xbd1449a83c900020U, 0xbc8f48cab9f53aa8U, 0x3c1ff5c9bc19721fU,
  0x3cb140ee3b76272eU, 0x3bcbdfcdbc835583U, 0x3c1c794b3a8ca977U, 0x3c77f5153b1ca7b7U,
  0xba260943bc085f2cU, 0xbba73eff3cad4fe2U, 0xbd0b60343d067548U, 0x3d0f394e3c205512U,
  0x3c9acf903d002da1U, 0x3d09f574bc24ef96U, 0x3c9efe3e3c9cfa89U, 0xbcf82e10bced5461U,
  0xbc137e033aa4d0cdU, 0xbadbbb9abd0a4419U, 0xbc91ac15bca761fdU, 0xbbfa8f773d02c918U,
  0xbce732ccbcc78028U, 0xbcdf6ec63d00b091U, 0x39c26938bc4fdf85U, 0x3c8651ec3c834113U,
  0x3c2416edbcb86f67U, 0x3c7241143bf3e859U, 0xbbff1109bc50c119U, 0x3c483e903a15f865U,
  0x3c2f60c33cbc1bdbU, 0x3c42f830bc6447a3U, 0xbd0239e5bc833c3bU, 0x3cc161a9bcfb7c23U,
  0xbba39281bc046142U, 0x3ba16bd3bc4e7e60U, 0x3c874d26bcfa47daU, 0x3d0ff7443b228b68U,
  0xbc1e29eb3d0e581fU, 0x3c31a03a3c940e1eU, 0x382990fcbb10eb48U, 0xba3796243ca513e1U,
  0x3b70736cbca8233dU, 0x3ae983cf3d005e20U, 0x3cfae822bcd80f00U, 0xbcc3f19c3d058f67U,
  0x3cd8cd793cce88e4U, 0xbc9eff5e3d0aea09U, 0xb9e1bcccbce1849dU, 0xbb75e85c3cf7d9c3U,
  0xbce56a21bc4601b6U, 0xbcf61647bc51a0adU, 0x3d1eee753c2acf53U, 0xbd0aefa03cfc3b3bU,
  0x3c446f69bc9ddd21U, 0x3a671ec63cb1d3a1U, 0xbb14770d3c6d8f58U, 0x3c3c223fbc2dd14bU,
  0xbcd3dfb0bc24b982U, 0xbca3b42e3af37c68U, 0x3cddf9e33c0e0a4fU, 0xbc8a967dbcd794cbU,
  0xbc203d6b3cee6f6dU, 0xba72fc80bc13f21fU, 0xbc8e7ad9bcce59aeU, 0x3d01c06c3cb6d78fU,
  0xbc9b3dafbccd8714U, 0xbb08f1cd3d0c0797U, 0x3cced8a4b90e7a5fU, 0x3cd63913bb53b5e3U,
  0xbc9aa7fdbc6c8e04U, 0x3b84959d3ca02767U, 0x3ca4541abca58b71U, 0x3ce7ec48bc6c1da9U,
  0x3c237e2f3ce3ceefU, 0x3c937bc53bc14869U, 0x3d00c65ebcfbae9eU, 0xbc31dcd2bcb8a9acU,
  0xbd01e6b53cba9536U, 0xbd1165493d1a90b7U, 0xbca0e42c3cd71c2bU, 0xbbd37c9fbb6aee36U,
  0xbca6ba47bc14590aU, 0x3c9d7e233bba778cU, 0xbcbc58f33c7c85dbU, 0x3ccb2d403beca48dU,
  0xbba9f4c93c62a6c8U, 0x3c1b1808bd05bac8U, 0xbd121cc3bbfd034fU, 0x3c256b9cbc9d7af7U,
  0x3c8ebdda3bea1d5aU, 0x3ccfe1c4bcfb9d0cU, 0x3caa14343cc8de96U, 0xbbbf8cd03bc2d21dU,
  0x3c3cb839bc82b45cU, 0x3cd5def53c16bb1cU, 0x3ced09083ce1a81fU, 0xbcb5cb0c3d015a38U,
  0x3b2f5aa63cc25750U, 0x3cced3043cb891cdU, 0xbd102674bccdf3dbU, 0x3cc226a6bca8d890U,
  0x3cb87804bbff5ed4U, 0xbc304b4f3b2e93b6U, 0x3d0b9e933d0bfad1U, 0xbc55a7d73c84fcacU,
  0x3cd723693cb81a26U, 0xbc8a25cabd0adb57U, 0xbd184634bd0d4310U, 0xbcd86fe2bc706fb0U,
  0x3cf4c73d3c301e51U, 0x3cdc7488bb826ce4U, 0x38951cdd3c802ac2U, 0x3c7cfe003ce4271aU,
  0xbc63954c3c8db69eU, 0xbd125a093cdc4ca2U, 0x3cf889463c7c5d57U, 0xbcf6a1e9bc352187U,
  0xbbded9003aef2ab7U, 0xbcb9abfabd063479U, 0xbd061e9ebcf39542U, 0xbc99679abc994488U,
  0xbb38ce3abc827f1cU, 0xbcfbb58abcba6a42U, 0x3b8b4a403cd83808U, 0x3c773973bb3c7c86U,
  0x3caa622e3ca4658eU, 0xbd0288c43ce351a3U, 0x3c9abcbbbcf0a7c8U, 0x3c08ff373cf69adbU,
  0x3cb5c57c3d111b1fU, 0x3d170f27bca92c9fU, 0xbcef316dbcac897aU, 0xba253ac93d062bd2U,
  0xbc0420abbcec5d12U, 0xbd184133bca5e76eU, 0xbc80cc81bce76f3aU, 0xbccabd3d3cf4020cU,
  0x3cc8862abd05cb66U, 0xbd098ab03bad6267U, 0xbc9d71443cef0409U, 0xbcb582e53bf0c291U,
  0x3c8ad9a53c35afa1U, 0x3cbd35173cddc119U, 0x3ce22a8a3cc7a2d2U, 0x3ce1a598bc4ee782U,
  0xbcff57a33cd38506U, 0xbc9a3a533d066c4aU, 0x3ccbb84d3b12e2b2U, 0xbd05ad4bbafbb2d0U,
  0x3c48cc543cd32157U, 0x3d15e4eb3ce926b8U, 0xbca2505bbd084269U, 0x3cac74c4bc7d16a4U,
  0x3befc129bc4b7605U, 0x3c3f31253cc482e3U, 0xbb4e644cbd107190U, 0x3b7197663cb3ae97U,
  0xbc1a43c93c0a2f4aU, 0x3d02b3e93c9a7162U, 0x3c942147bcb857f1U, 0xbc436ee9bcf65c85U,
  0x3c8918ab3cc5bc76U, 0x3ca857d53d1007ddU, 0xbc51e418bcefa706U, 0xbbd503733c9a4133U,
  0x3d09185b3b3b4c08U, 0x3bbf936139658c3bU, 0xbcd812a93cfc0971U, 0x3b010ed8bc708267U,
  0xbbdfdf3cbce43e92U, 0x3cf7469b3c0fd2a6U, 0xbbdf977c39a7c9a0U, 0x3c95496d3c82af22U,
  0x3ce950843c76032eU, 0x3cac4bf83a5bf18bU, 0xbbe7574ebc92d496U, 0xbd14b1d73c8bd2e6U,
  0xbb9b2d26bbf8a4caU, 0xbc2ee3e03cf87430U, 0x3c199953bd09e944U, 0x3d09bd3b3cf16be5U,
  0xbcffa0043c9d9760U, 0xbcefd6ec3d0b2877U, 0x3bc87377bd12d63aU, 0x3cdae0903c878496U,
  0xbcfec7f0bcdf779dU, 0x3cc0783fbbc04110U, 0x3c9445ebbc80afedU, 0xbc8fa2d6bb647c36U,
  0x3cdab1a4bcb4fa2fU, 0xbae4821f3cab7eefU, 0xbab76d433bc23788U, 0xbd06f1833b9aec0cU,
  0x3c283d55bcc66f5cU, 0xbd1608ca3accab3dU, 0xb97651d53cef95daU, 0x3c893cc43cc737deU,
  0xbbf72b49bbe57d64U, 0x3cb25932bcfcc155U, 0xbb3aaef1bc84bb2dU, 0x3bf28cdbbbd85fcfU,
  0x3c5d29b23ce5628bU, 0xbcd5228bbcdbb9a9U, 0x3b902d4ebc8db9ffU, 0x3cb319c3bcead5deU,
  0x3ce5fbc4bc9fc9f5U, 0xbcaf2277bcb024a2U, 0xbc93ad66bbbd3195U, 0xbd07520a3cba5b33U,
  0xbcf43bcebc37f08cU, 0xbcabcfb4bcb2bdbaU, 0xbcf4eb8abbe6e014U, 0x3d11da3dbb0dfba6U,
  0xbccbe02bbc97ee6cU, 0x3c0784efbc076749U, 0xbc0ab1aebc969d0cU, 0x3c0d569f3ca9c80eU,
  0x3c80dcd03c837931U, 0xbc364a0d3bb01050U, 0x3cdc79cfbb7e0029U, 0x3c8864983c631549U,
  0xbd0c7b7dbd0af69aU, 0x3c52c4f4bbbb175fU, 0x3c7285503babb3caU, 0xbd05424c3c430117U,
  0xbcfe00e43c2df4e5U, 0xbc32629d3d07e51bU, 0x3b335a76bcf879cbU, 0x3c8b1522bb468aebU,
  0xbc6454343cc669a6U, 0xbc81ab803c93a9f1U, 0xbcddd1943bd13dfcU, 0x3a8c8480bc9a8a29U,
  0xbc34e98bbcd89a7eU, 0x3bf888cf3ca80101U, 0xbd04a81ebc90cf0aU, 0xbcc8cf4f3c558a47U,
  0x3b2be11d3cbc0b6fU, 0x3c0009ed3bd04f20U, 0x3a936d0abb695f11U, 0xbc4985213cf21c57U,
  0xbb63162f3b571813U, 0x3cd57092bc8241a9U, 0xbbb80622bc58e7ddU, 0xbc58f66b3d0d8845U,
  0xbb28279abd08dbf8U, 0xbcf7ff36bc3215deU, 0xbc665b13bd09508eU, 0x3cb6fb863cc8820aU,
  0x3c1b5aefbca10f52U, 0x3b87c6613c47c641U, 0xbb847cd13ba320bfU, 0xbc624d38bcb80153U,
  0x3b6c07683cbaa671U, 0x3c8ad702bb0c873aU, 0x3ce6e8913d2a429fU, 0x3d0349c6bc65e299U,
  0xba045750bd08d20cU, 0x3d17deb43c846478U, 0x3cdc5281bcfbb896U, 0x3c7274973b173d2cU,
  0xbb4ae97abce67960U, 0xbcc06204bc696886U, 0xbcc18b4c3aa4e374U, 0x3cde08953c08882bU,
  0x3cc11c52bca647f1U, 0x3bde0a273c789ce1U, 0xbbc309fe3b8a0b17U, 0x3ce0341a3c01d408U,
  0x3b8a26b53ca11240U, 0xbcf76c453cb40a1fU, 0xbbb788cf3c4d0de2U, 0x3c378082bc2970abU,
  0xbcd7f0dabd0d44daU, 0x3c301a8f3cf61fa8U, 0x3d1a88f2bc41119eU, 0xbb947abfbbb5d317U,
  0xbabb3c9bbb663fadU, 0xbc722ba43b4a5e52U, 0x3d286e783ba92211U, 0x3c47bc6abc82d39fU,
  0xbb333092bc466620U, 0x3c9dadecbc26c59eU, 0x3c5ec1f43cffeb37U, 0x3c92153c3d10ce55U,
  0xbcee2f2dbd0e233eU, 0xbb869fdd3c4d146bU, 0xbc9707153d18c086U, 0x3c2854333b46918bU,
  0xbd0fbd393c3c456bU, 0x3c7513143bc327d0U, 0x3cec7ad0bcddb8a9U, 0xbd033d55bccaec85U,
  0x3d0a153e3d00726bU, 0xbcd58c5e3d031ad6U, 0x3d1582293ce438e4U, 0x3cf910d2baed789aU,
  0xbca2c1283d1e22a3U, 0xbd04f90dbca76cfcU, 0xbb027edc3cdd26e9U, 0xbcc40e5f3ceb0c94U,
  0xbd001e41bc396fd2U, 0xbc9aaa8bbc57a89cU, 0xbd05e5313ad13115U, 0x3c421eba3d0f92abU,
  0xbc8b4eb73ad78968U, 0x3cc8d1a9bb99d634U, 0x3cbebc4c3d0966caU, 0xbbc125fabcdcd599U,
  0xbcd58047bcc3e788U, 0x3c259ee13c27a4bbU, 0x3cb7912abcdcc736U, 0x3bf91fda3c713c25U,
  0xbcd3b037bba69e72U, 0xbcf4ca2e3c425706U, 0xbc943f4b3aca59c0U, 0xbc51d5393bebdd3dU,
  0xbc73c69e3d02addaU, 0x3c28916ebb7cbe0eU, 0x3d06fa07bd0be0ecU, 0x3cd9d995bd0435c4U,
  0x3cc756ab3cfc1965U, 0x3c9b4ce03d0d9481U, 0xbca906e6bc741014U, 0x3d012b5abce4b081U,
  0x3cf730c43cd027d3U, 0xbce076373cb43270U, 0xbc826fcd3c74df1cU, 0x3ba7ca443c876738U,
  0x3cc99dd33ccb8700U, 0x3b86f2b0b7d0c678U, 0xbc9c2450bcb65d06U, 0x3cd302ba3c8e58d5U,
  0xbd01229b3cbfe3edU, 0x3ac685b7bc2dc5fcU, 0xbccd7c7b3c36b6d0U, 0xbc236b00bc9ae449U,
  0xbcb506c9bd0f9d08U, 0x3ca32b2dbc3262a7U, 0xbccc729d3c160860U, 0xbc53c2703d0f5427U,
  0x3a48b1be3ca68df6U, 0xbc56a54fbce4ff23U, 0x3cf2757bbbac5d6aU, 0xbc866e6ebbbf2110U,
  0x3d0c9bf33c1bf99fU, 0x3a7e8304bc738141U, 0x3cc03ee43cc03a50U, 0x3c44d6dfbd1041a6U,
  0x3c8bea583b045eb1U, 0xbcfaad9a3be27bf7U, 0xbbfcdcd7bc974844U, 0x3b274ded3cb4185cU,
  0xbd0b83113d01d94dU, 0x3c7590d8bc9359b4U, 0xbd1089213cabd1d3U, 0x3cdc683f3cd7fd93U,
  0x3ca779063ccc296fU, 0xbc21a8a33cca3ef6U, 0x3cdab8613caec189U, 0xbc80e9273bffe77eU,
  0xbbddac62bca8b6aaU, 0x3c27c4603ce4dd24U, 0xbd0ac8b7bc08bb0eU, 0x3be0cf52bc4e503dU,
  0x3cc8cdec3d087d23U, 0x3c80ed9e3d03484fU, 0xbcf2bf59bcbc8db5U, 0x3cb00f96bb26e555U,
  0x3c94a0b13b347576U, 0xbc7beb323c780326U, 0x3cc329943b35fe70U, 0xbcfc33753cfa4b16U,
  0xbb311e7d3c9c7a73U, 0x3cbe68bb3cde8928U, 0x3c8ace70bc6a5837U, 0xbccfc12d3cdcbaa8U,
  0x3caf93ed3b27b3faU, 0xbc00ac7fbc634a87U, 0xbb0fdc253caf3d2eU, 0xbc4b71b03cfb2390U,
  0xbc3efe86bacd88f1U, 0xbcd7a0673cb80e4dU, 0xba33614c3c3423c8U, 0x3cf358293cabd96aU,
  0x3c2beac9bcae68dcU, 0x3cd6f4433cc636e5U, 0xbb28be4b3d054b99U, 0x3cc2604c3aa2574cU,
  0x3aaf7f113c5c934cU, 0xbb029775bcac675cU, 0x3cf815e33cca40d3U, 0x3d02156c3d169f45U,
  0xbbc4cee6bc59c3d2U, 0x3d045c24bca23fc4U, 0xbc4f07c23d1256a5U, 0xbcb29b943c603878U,
  0xbcca7b5a3bc0648eU, 0x3d160a24bc2fdadcU, 0xbcccd849bcd1f69dU, 0xbba295eabc52cdf5U,
  0x3c9872403c26f8e7U, 0x3bc5bddf3cf62ebfU, 0xbc853c1dbd00c313U, 0x3cb73a863c16c862U,
  0x3c4799c9bc9f8c2fU, 0x3cb932e23b147612U, 0x3d14b7dfbba30738U, 0xbca91402bc502602U,
  0x3a3c52ed3c9a4257U, 0xbcae18c93cfb832eU, 0x3ca3d8993cb4d7deU, 0xbce96ce93a3dc8fcU,
  0xbcc9bbbd3ce2451bU, 0xbcb88c13bd03ea90U, 0x3cd5a69b3d00580dU, 0x3d0ece3cbce30e91U,
  0xbbbcd420bb1e7ec4U, 0xbca47218bc8f4ddeU, 0xbc033b843cc4cf86U, 0x3cf71644bcf6ca70U,
  0xbcb0aa85bcca172cU, 0xbc8755d3bcb9c62eU, 0xbc13139abb21137bU, 0x3c3bfb003cabfe26U,
  0x3cb94b55b95d5ceaU, 0xbcc156183b3c6fb7U, 0x3d0c99983d12cfb4U, 0x3cda200ebce22482U,
  0xb98912bb3b79a0abU, 0xbc6b9a61bbcd0fbdU, 0xbd02bf9b3bb405efU, 0x3c8442183d18ff2bU,
  0x3c9e6d253c4e8cacU, 0x3d0320b2bd144e40U, 0x3ccc6ef1bcc68089U, 0x3cdd5029bc585711U,
  0x3c2d49ae3c45a13fU, 0xbcf3ff8e3c0b13f7U, 0x3cdbcec33bd42b46U, 0xbc5ed7633d02f961U,
  0xbc2070f63cc92814U, 0xbbc4d0ba3c5a6823U, 0x3c533001bcdd852eU, 0x3c852f33bc8faefaU,
  0xbc272f583ccf9811U, 0x3ceb60f93cc64448U, 0x3ce70a48bd0a003eU, 0xbcc778dabc1cf73eU,
  0x3d104a8ebce4639fU, 0xbcd8f754bcc53f1bU, 0x3b8d1d26bd16ac55U, 0xbc72d929bc8259abU,
  0xbd0573693cf8cbe2U, 0xbcff05533bdf76a1U, 0x3d0e64e7bc428050U, 0xbbfc30d23be841b6U,
  0xbb7a03463cd6f6b3U, 0x3cd5b3da3c375debU, 0xbcd30c3fbc880df5U, 0x3c3de770bcce0390U,
  0x3d1649e2ba1a09e2U, 0xbc8f8fae3b26bc3dU, 0x3ce21fe5bcf80a14U, 0xbc6b1356bd091182U,
  0xbcd8895f3a55de29U, 0x3c12ee1d3ba184a8U, 0xba6b2bb4bccd67bbU, 0x3cb3004fbc83663fU,
  0xbcba504bbd153654U, 0x3cccfd973d070d06U, 0xbcd46aafbd173ea1U, 0x3cc79f87bcd83031U,
  0xbc93f6213c767053U, 0x3c401c46bd1e3f09U, 0x3ced00b2bb9901baU, 0xbc6b1e12bd0ac4a8U,
  0xba5c87103d0c2c8aU, 0x3c073e103bef4cf4U, 0x3d04e3953c78d412U, 0x3c3e3e9c3c82aafcU,
  0x3d032e793c0de808U, 0x3cb511a9bd0077e3U, 0x3d1ead633c392f1dU, 0xbd1902173c9c2604U,
  0xbce9cc733c4b2615U, 0xbc8d3784bc5f3211U, 0x3c97ec89bced87b3U, 0x3d05f879bb8de137U,
  0x3c3ecdcd3cf9687aU, 0x3cd8884d3c416db8U, 0xbb65598d3c909be1U, 0xbcb275773c937353U,
  0x3c96df513cab42e0U, 0x3c2ef1fc3bd37e5dU, 0xbca73350ba21cfd9U, 0xbc2d5dfe3d0aa968U,
  0x3cad672dbcc78234U, 0x3cd2e4d8bcfa5d2eU, 0xbd04daf8bc83cb50U, 0x3bc0a928bc581fb7U,
  0x3c13309f3ce71956U, 0xbc9d31d93cd72832U, 0xbc9f987b3cb93ab6U, 0x3bb9630cbd0c2095U,
  0xbd033511bc55e57cU, 0xbca5aeafbb9ec2bcU, 0x3b37a3293d169883U, 0x3c5365283c10a5a9U,
  0x3cd40d71bd125d2bU, 0x3c09b283bc68e7f8U, 0xbc3c558cbb812b1dU, 0xbcb90ad9bc50cf2dU,
  0xbcde3c0abca87018U, 0xbce0849b3b971bb4U, 0x3d15e6a8bc7f1926U, 0x3c32fecd3c88cb38U,
  0xbba527f0bcc05c25U, 0x3c5d0dc2bc982935U, 0x3cff75903aee477fU, 0xbc1c2584bd02bf66U,
  0x3d06b945b9b85167U, 0xbd03f2733cb5fc75U, 0xbc0d021ebbed08c9U, 0xbce1cfcebc94b3c7U,
  0x3bd819a6bcfae158U, 0xbc3e08163a9d1046U, 0xbc847a53bcb59939U, 0x3d071ac33c96e63aU,
  0xbd1ed6763cc1a56bU, 0x3c68da7abaec7c73U, 0xbc35cff0bd01406dU, 0xbcbf467d3d069f44U,
  0x3c1396e1bc452013U, 0x3ce154593cd4fad3U, 0x3c879ea4bcf9a7f0U, 0xbd23f3acbc859a3aU,
  0xba124a64bc368ed1U, 0x3cf433d73ba23353U, 0xbb6f1dc6bc8949c2U, 0x3ce2c383bcddbe05U,
  0x3c52b6c9bc4d6facU, 0x3c9e07abbccfbd26U, 0xbcef08e3bc1d60b6U, 0x3cb6e145bc0d7429U,
  0xbd0a43f13ce6d942U, 0xbd09ab49bcd54540U, 0x3c84b864bc9ff58fU, 0x3cb423a7bd006777U,
  0xbc238621bcf1d95cU, 0xbc5462003cde5a9fU, 0xbcc0d797bbf5e7b7U, 0x3bc7b1183d134588U,
  0xbcb1042dbbe2fa81U, 0xbd29aa75bc152315U, 0xbc9b23993cc78762U, 0xbd2f2d643ca4bb8cU,
  0xbba7905bbce755c7U, 0xbcae774ebca94feeU, 0xbd4a0e8e3b95f85eU, 0xbc5d4178bd0ccaa9U,
  0x3c901fa1bca0f07fU, 0x3c4db5ff3898e7caU, 0xbbd19544bcf7e620U, 0xb7e5b01f3c07a47bU,
  0x3c19541dbc951e85U, 0x3cd525a6bc90a64aU, 0x37c5dd37bb7480bfU, 0x3c85d0d73cec6ea8U,
  0x39cbeb743c48d039U, 0x3cdcbc8e3c4db739U, 0x3cb0a3a7ba7d7ccdU, 0xbd200b023c7ab780U,
  0xbcfae7a3bb9727bcU, 0xbc50490abcf7aa87U, 0x3c612bbcbcad48d7U, 0xbc5e6724bc3fa89aU,
  0x3c553678bcb8d12eU, 0x3c2dc8cf3c9387e6U, 0x3cc7f778bce4cf54U, 0xbd3a052abc933babU,
  0x3b28446fbb808c43U, 0xbd2317c93c6c4dc9U, 0x3bba5670baa72dbcU, 0x3c0582c13c939b58U,
  0x3c887a08bd1832e9U, 0x3c8ad1c23cf77300U, 0xbd237a8abceccf0bU, 0xbd217339bb97cfe8U,
  0xbcbf8e8b3ba2650aU, 0xba978a55bd2da5cfU, 0x3c48afa3bc9aba9bU, 0xbcdb75d93c5b3780U,
  0x3cbba1dbbb2a66c5U, 0x3cf2f3e53cbfabd1U, 0xbc1af30f3cea775eU, 0x3cac01553c0f4de0U,
  0x3cde9ed0bb8414c2U, 0xbd18bdd0bb99fb2bU, 0xbb1863c63ce9e3e2U, 0x3cbf7ecd3bb0fce3U,
  0x3c8dd41fbd33a9adU, 0xbc453233bc164460U, 0xbc3aefd23bd0cba1U, 0xbcf4df43bce47e3dU,
  0x3cee8d8b3c7cb28aU, 0xbca1cfa7bc8c1744U, 0x3cda4f54bc7370e8U, 0x3ccdfd663c44a173U,
  0x3c72062cbc3a771aU, 0x3c69ef91bc8004c5U, 0xbd155c08bc4174c2U, 0xbd1994873c66e699U,
  0x3c6acaeb3c22137cU, 0x3bfe1db73c806024U, 0xbce47234bc82902cU, 0xbc829d213d1e1baeU,
  0xbceabbe5bcd10e76U, 0xbd188f55bd0e1993U, 0x3c9266e63a24a417U, 0xbcbfc835bd31dd5fU,
  0x3c98f704bd21d0c8U, 0xbbe34c433cb48434U, 0x3bdba80cbcfe53bcU, 0x3c62559c3c892d55U,
  0xbbc92ce0bc629127U, 0xbcf595723d02454aU, 0xbc10fb393c6d52aaU, 0xbc905119bc9f06b5U,
  0xbbd97b17bbad2716U, 0x3cbe46233cfaee4cU, 0x3d04f6cabc5d40eaU, 0xbc3087d13b95b581U,
  0xbb13ac72ba03af15U, 0xbcf390323cb2c09cU, 0xbcf50a6e3cc523aeU, 0xbceebc183c93a1f3U,
  0x3c16b8debca6b388U, 0xbba40e7f3c7465dcU, 0xbcdb49523b603d97U, 0xbcc08b683cab90c7U,
  0x3d015fadbb9722a1U, 0x3cca29b7bd08e9afU, 0xbccf10e9bceea686U, 0xbc4c66f73d00ac0eU,
  0x3c41962ebcb8085bU, 0x3cb87b71ba8e25d8U, 0xbd029b33bc916d6dU, 0x3d01e4e7bc43a32dU,
  0xbc87dd413c4bc2fdU, 0xbb9de05bbc958f13U, 0x3b2c3f853d072552U, 0x3c9f25f93cec0368U,
  0xbc02fbfbbcb85825U, 0xbbbbf6e8bc524b7aU, 0x3bd34721bb4a6c2cU, 0x3cd8c03d3c506363U,
  0xbccd5691bca366efU, 0xbbf8ac953ca728dbU, 0xbd043eba3cfef711U, 0x3c05c554bc4ff9b6U,
  0xbcb6049fbce717baU, 0x3be27cbebc5f3443U, 0xbcf87c8e3cc8d23fU, 0x3c908a72bc9741c0U,
  0x3cc150fb3caa6938U, 0xbd0c5ba0bccd0a7bU, 0xbc2cad533c86885dU, 0x3ca2ef2e3a03c3ffU,
  0x3d0a4f3a3a3b4eb2U, 0x3c0396853c98d709U, 0xbcf8f5f1bd17e99aU, 0xbca80a0e3c26ce6aU,
  0x3caac7473c581f1eU, 0xbccf2fa53cbc0a35U, 0xbb69f6b0bccd65f2U, 0x3cf5151b3a839e18U,
  0xbcbe6b71bc02c408U, 0xbaf1e05b3cd45291U, 0x3c9ad8a43c513e96U, 0x3bb165aebcad3cc2U,
  0xbd0094cebcf0a001U, 0x3c89206bbc568e47U, 0xbcd1f64dbcb0e16aU, 0x3bcf7aac3cd6b203U,
  0x3cfc42dcbc003509U, 0xbcf6387b3cf5619aU, 0x3c99671b3cd2c24fU, 0x3c1b92cbbb734158U,
  0x3c4a297abd1c09e6U, 0xbcdfb3e0bcc72aabU, 0xbb8b518f3cb3eebeU, 0xbcf09bffbceb49ddU,
  0xbcd65b1b3abf264bU, 0xbcd34f023ca8fcfdU, 0xbccfa6dabb0e4d92U, 0x3c6d3ee83cbc491bU,
  0x3bab293c3b6a156eU, 0xbca013b4bd1cd121U, 0xbcce09a8bd179842U, 0x3cd8a573bce96b1bU,
  0x3c6d8fe7bba435f6U, 0xbb6cbacb3d0fd1fbU, 0xbcb2d586bbeec9cbU, 0x3cfeb59cbbb81c58U,
  0x3c7869b0bb452af1U, 0xbd10caf23cb96d56U, 0xbd0075a6bb027bdeU, 0x3b869cc0bccac501U,
  0x3ceea3f7bc3fc638U, 0xbc3b2f96bcb07249U, 0x3d04cdeebb97caf6U, 0x3c9d83d7bcb89886U,
  0xbcd83d463bef0fa9U, 0x3cd1b7cbbd0b4d92U, 0xbcc2b1613c9f6d10U, 0xbb134c503c3fa071U,
  0x3d0c77a23b1219f3U, 0x3c1b1fd63c1f0b7cU, 0xbbd4c777bc8a8d35U, 0xbcacbe963ccb3de1U,
  0x3cdaefc5bc8647f7U, 0x3c8c6c33bb370d93U, 0xbcbc3b1a3c64622bU, 0x3c4cfdb63cef912cU,
  0x3cbfd9c3bcae4864U, 0x3b9f4dc6bcd4fc39U, 0xbc85cc51bd0d4184U, 0xbc781c20bd1c1e07U,
  0x3cd2bd943ca6ea9eU, 0xbd02203abc2ba441U, 0x3ba27368bbe11d61U, 0x3d136d3c3c8e0aa3U,
  0xbcf1c058bd00d572U, 0xbccd40d8bc120767U, 0x3c7b590f3ceb9889U, 0x3ca314893b9acb44U,
  0x3c62e88cbc4e6f0dU, 0x3ccff668bd005d47U, 0xbc8006073cb07639U, 0x3c4036d0bbd00a26U,
  0x3c27cbaabc412aa1U, 0xbd035d21bccddb40U, 0x3d039a4e3c693544U, 0xbc5d4fd43bfed9c3U,
  0xbcc82c883ca38df0U, 0xbbf270f8bcc6a6d2U, 0x3cc13eea3c9dd879U, 0x3ae97db6bcfcfc32U,
  0xbbeeeb65bd1d1d87U, 0x3c579cbd3a8c74f6U, 0x3cb7a885bb650780U, 0xbbfade443d17ea55U,
  0x3aa0e167bce227e1U, 0x3c471ee2bc28cc9dU, 0x3c3f127ebcc41eacU, 0xba3884a3bcbf398eU,
  0xbcd90e943a8c9bedU, 0xbceeb1893ca8984aU, 0x3cc9e69ebbd2c20bU, 0xbc35a67b3ce42168U,
  0x3b31e79d3c31ae14U, 0xbbc993d9bce472c8U, 0x3b7421ae3ca9a7d3U, 0xbca1f098bcb2f862U,
  0x3c44fbfebc5bbe9fU, 0x3cc641c03bb220cfU, 0x3bd384a93ab45322U, 0x3c8f0df8bc978ec9U,
  0x3c397f62bca1040fU, 0xbc9f90babc53ea5aU, 0xbcf6ee003c1c564eU, 0xbcfd14c8bd05c2e7U,
  0xbc9b87c9bce88edeU, 0x3c0d9637bd1286b9U, 0xbcbd05ac3cf0188cU, 0xbcb5eeb93d065bf4U,
  0x3cd8fe51babf0279U, 0xbb06e74dbb677f4eU, 0xbcb3c77e3cd00c54U, 0xbd05532abcbc090eU,
  0x3cf5dd8bbc8c11dbU, 0xbcd89199bc020e83U, 0x3b70575f3cd4b81cU, 0xbb1204a3bcb520eeU,
  0xbc5669bfb8cabdaaU, 0xbd1b4aa13cf129faU, 0x3b5b3ec43ca505f2U, 0xbc5a48df3b8fd8b7U,
  0xbcbe081abb862605U, 0xbba12b19bccf6a06U, 0xbd0629943d0089ffU, 0x3cd4a8f3bbed7bbcU,
  0xbc9c5160bccbb07eU, 0xbcc9fa633c9fd1a3U, 0x3b8ba1cfbbd9f05eU, 0x3ce463513ce34cd3U,
  0xbd1ad4493c671f54U, 0x3cae003abd1950a2U, 0xbcb49a9f3cf863c0U, 0x3d0c9ffbbcd821c9U,
  0x3c0ad319bd2d8f35U, 0xbbf868e3bc8c0935U, 0xbc4f0439bc424b9aU, 0x3cce80393babc69bU,
  0xbcb77bdabc9ba0efU, 0xbc8272acbbd2f784U, 0x3c0b0c89bcde3dd6U, 0xbc071acfbcbca8dfU,
  0xbc667587bb9e11bbU, 0xbc9d7405bce8314cU, 0xbc5975b9bc7bfc00U, 0xbc4b2c7dbc26b310U,
  0x3cc99d053b85c99fU, 0x3cce1ae53ce81ba6U, 0x3c9ba4213a63551bU, 0x3ca9bf6fbc0d596cU,
  0x3c286876bba6e95cU, 0xbceeccf6bc90ad28U, 0x3c807be03c13a46cU, 0x3cf26e5e3cd4685dU,
  0x3bd36b42bbea5a20U, 0xbbc9fdc6bbeed5b5U, 0xbcab8b24b9a89dd0U, 0x3bb85360bcf1dc90U,
  0xbd04589abb3948ddU, 0xbc4344053cce7c54U, 0x3cbc3e27bbbddd2fU, 0xbd092c6e3ccf98cdU,
  0xbc89bee8bcc87a69U, 0x3babc67c3cfb6768U, 0xbca4c5d23c9c71d7U, 0x3c19ae46bd179ac0U,
  0xbd0896dbbc814482U, 0xbc927f413cdb84fcU, 0x3bdcda103cc20088U, 0x3d1587b9bd02ca5bU,
  0xbc0aa3e73cb9bd9eU, 0x3b7c3367bd00d0f0U, 0x3cbbba103cf1f4a8U, 0x3c3081b43cbf5fcbU,
  0xbbc565f23d007d7fU, 0xbccdb22ebcecc862U, 0x3c0fd277bb97dc2aU, 0xbbdb175abc1bfeb6U,
  0xbcf800753ce690aaU, 0x3cad9fab3d11469fU, 0xbc9e21923cd44c18U, 0xbd0a14ad3c3924c7U,
  0x3d0adceabc3a32a0U, 0x3bdbfe613ce5d4eeU, 0xbb053ee2bca5c5f9U, 0xbc3641563cb19fb7U,
  0xbce3b8dabc5bf9e4U, 0xbc28e0febacafeacU, 0xbcb5d0b13cdd6e5bU, 0x3d00842c3cd62862U,
  0xbc3b9c71bc34e401U, 0xbd0815383ca02301U, 0xbc8f810c3c281d3cU, 0xbc9a1d0d3ca1b866U,
  0x3cd5ae0d3c25bf78U, 0xbb056d333ca84d35U, 0xbd137b703ced087cU, 0xbc55efe3ba7bbdd3U,
  0xbd11e89abc583bbcU, 0xbccc55683ccaef8fU, 0x3a53cc8cbcf42cc6U, 0xbcc63712bc5ee3ebU,
  0xbc68e91cb9efb4efU, 0x3cdb9ff7bc805120U, 0xbcfebf753cea3856U, 0x3cb6000e3ce2f11fU,
  0x3ca5ab4ebc7b5396U, 0x3c57f99cbcd69d24U, 0xbd059e9c3cce23e4U, 0x3b5d07ab3c6ceb6dU,
  0x3b1dcef4bc62a5daU, 0xbc1e8247b8b8af6cU, 0xbcd99b833ba830c5U, 0xbc151f67bc8924ddU,
  0x3a2123efbd0cc1f6U, 0xbcbb5b8ebcb9e6c1U, 0x3ca076b3bb6085b9U, 0xbca43c633ca28923U,
  0xbd0d1570bba3b163U, 0xbc2da42e3cdc6d2eU, 0xbb48aba7bc8e0f15U, 0xbc29d927bd138dd7U,
  0xbc76ce173cfb7f73U, 0x3c7ac1aabc4d5c0bU, 0xbceae523bccd5732U, 0xbbaf8b0f3ab2e3e8U,
  0xbd12ce6a3c5c82e5U, 0x3adbb0d4bccb2c01U, 0xbd058901bcc8ae03U, 0xbbb1dd78bd2042f5U,
  0x3c8b7d7fbc389576U, 0x3c182d483c8a8891U, 0x3cb4b7723c16fa0bU, 0x3cd5bce73cd4dde0U,
  0xbcee54af3bf0cbbfU, 0x3cee7715bc8f92ecU, 0x3c536e8b3c83ff24U, 0xbcf7aec63cff6dc5U,
  0xbd0c765cbce49e19U, 0x3c7797edbd20b92fU, 0xbc8ffd18bd061da7U, 0xbcdde8573c77cde6U,
  0x3d0a14283b64acf8U, 0x3c2195843cd0efe5U, 0x3c1bee933cc48d22U, 0x3c38b0d23b8f288fU,
  0x3ba01ece3cc47b1bU, 0xbbc0c9c23b123a05U, 0x3ada70ce3cfe7c5cU, 0xbb28c4863cd0fda0U,
  0x3c854051bcb6a1c6U, 0xbc9f668ebba4b9a9U, 0xbc98915e3cf6f3d5U, 0xbb758c97bcf08aa3U,
  0x3cc7123d3beaf910U, 0xbb9e36c0bd0f0285U, 0xbbd713c0bd0a6a3dU, 0xbc42136bbcef0280U,
  0x3c8bdd9a3bc05f6cU, 0x3c3eea423c3effbbU, 0x3be524563ae66d68U, 0xbd0d1a9b3c45e09dU,
  0xbd42f1613c25e8c9U, 0xbc71e014bd0784b6U, 0x3caff2343cc8cc92U, 0x3d048a2c3cd09008U,
  0x3c796acf3cd78d71U, 0xbc2124ad3c64cc6aU, 0xbc2dfba2ba024689U, 0x3cae48183d184a3aU,
  0xbcb09f6a3ca5d8e0U, 0xbc79c2a83b1c9980U, 0xbc12a0dcbd04354dU, 0xbd02f19ebd2034f8U,
  0x3a18a184bc0d72b7U, 0xbc35cd2abc60f170U, 0x3c3aa34fb55ff8f8U, 0x3cffbaa23c98d9f2U,
  0xbc42bc513cbe1fbdU, 0x3c65679c3ccdf242U, 0x3c592bd73caac8b3U, 0xbcc81f383c289c2cU,
  0x3c1d10543c0b4edbU, 0x3cb1be363c8187d6U, 0x3c7d1b18bc8407c8U, 0xbcdb58473c963fb3U,
  0x3bba24c7bc8c860dU, 0xbc8c482cbd033a32U, 0xbb15cf16bd3da40eU, 0xbd262d45bcbb9cbeU,
  0xbcc86d4bbcea8fe1U, 0xbd17b0a1bb6cd4a9U, 0x3ac246ca3ce0d50dU, 0xbd3740e4bc747dd2U,
  0x3d09b9b6bcc039b6U, 0xbd1c3ae7bb8f06acU, 0xbb21240abc513baaU, 0xbcf24c34bd48c0c1U,
  0x3c8a26bcbcab005dU, 0x3b0333263bc7ab9eU, 0xbc82245bbd2098edU, 0xbbd22fa73bf793d2U,
  0xbc176dddbc32871aU, 0x3b8b0b713c8957f1U, 0x3cf89010bc20b0a3U, 0xbc464c173d108055U,
  0x3c84f914bc80e97dU, 0xbc6844f83cc1de82U, 0xbc3fa36ebcc75521U, 0x3cd1214b3d18ebdfU,
  0xbb7238043caef786U, 0xbd01e370bc4e7c71U, 0xbce36aecbc90b3a6U, 0xbc1915663c1a8fc0U,
  0xbb9df1b93d06b29dU, 0xbc03d6ae3c2e1b33U, 0xbd34b09cbc0d2cb4U, 0xbc633487394d1893U,
  0x3b63a628bd04e0ebU, 0xbbd04de63b3d1934U, 0xbb7398b6bc6f17c0U, 0x3c6f5666bacf47b9U,
  0xbd367227bd04588cU, 0xbc9d0107bd24fa22U, 0xbc0286da3ce5c4b4U, 0xbd1318603c230e9aU,
  0x3c8af44abba5a6e3U, 0xbc86a568bcab371aU, 0xbb674be63c04c62cU, 0xbc35cf023c3df3cdU,
  0xbd12c02a3c1fb544U, 0xbd33c9f93c768b58U, 0x3cce54e7bc6cab71U, 0x3a91b66dbcd8c4fcU,
  0x3ce19cda3cac9356U, 0xbd05400c3c58e5a3U, 0x3cc71fb3bd0c66c1U, 0x3a66a8fa3c264201U,
  0xbb2f0250bb7c1dafU, 0x3bbbed6ebd1f6566U, 0x3d1bd35e3caeff44U, 0x3c6595c13bec1e7cU,
  0xbccadcc83c0ad76cU, 0x3cfaf6f53cff12d8U, 0xbb213af83abc295bU, 0x3c74c7203aa10b43U,
  0x3a43f3913ca400f1U, 0xbc8346e23cb26f1dU, 0x3d129771bce763dcU, 0xbd1b482b3cb42c14U,
  0x3ce41ab63cdc7df0U, 0xbcdcb9573c5f3febU, 0xbcb8e331bcb2f296U, 0xbd08ea48bb8aa57bU,
  0x3c18cf7dbcf15e1bU, 0xbc98ef36bc177d25U, 0xbd181f283d0a230eU, 0xbc834cadbc15a084U,
  0xbcd2568a3c8d4f09U, 0xbc7a5c83bc90e3eaU, 0xbbdd73a23c2018d5U, 0x3be570fb3ce34966U,
  0xbc14a10fbcb580e4U, 0xbc11ba4f3d02b743U, 0x3cc8c9393ab50737U, 0xbba4c94f3cd30e6cU,
  0x3cc42a58bcf32b3bU, 0xbc9816b5bc4cd3b7U, 0x3c7ee2a83d03420fU, 0x3ce3ee003b4574dfU,
  0x3b78f09cbb0b2c6cU, 0xbc74a6ddbd02171cU, 0xbbf1690e3ce9ab68U, 0xba59289bbb6c787bU,
  0xbd0420603cdf4105U, 0xbc3ba873bcf45ac4U, 0x3c599e7cbc9c0d7aU, 0x3a781a2cbcd13bf7U,
  0x3cc18f443af52c62U, 0x3ca92a753cf086ffU, 0xbcc0445bbccbfc94U, 0x3cf5aaf9bd034b04U,
  0x3cafdaa6bd030264U, 0xbcf44429bc678573U, 0x3cd479953cdb58d0U, 0xbcfeb2a63c3b20caU,
  0x3c830b763c9aac13U, 0x3cbd563ebcebc673U, 0xbd079eafbc94c16bU, 0xbcae4648bcf9548eU,
  0x3ca58749bd1bba5fU, 0xbd1224fd3cecec79U, 0x3cc36c653ca0a79dU, 0xbcd05bdabc523aeaU,
  0x3ce42cf63cc55f34U, 0x3c209a25bcad6385U, 0x3d011752bc6a20c6U, 0x3cfb378e3cc8a07fU,
  0xbcbbceb73d13573dU, 0x3bda3bae3d0524f7U, 0xbc775ea6bbfc8f7fU, 0xbc93bfdb3bb7230dU,
  0xbbdb24583a9a8810U, 0xbc97191abcf259edU, 0xbbce39f7bd0a164fU, 0x3d04ec06bc64fd0cU,
  0x3c106e7f3bd50b0aU, 0x3cc11b653cb178f5U, 0x3bde3bb6bd0bc20cU, 0x3a61b2883c19cb12U,
  0x3d061661bb801d0fU, 0xbd01f67cbc14c23bU, 0x3b53a4093cb3cbefU, 0xbba163eebc8ee6f7U,
  0x3c27d8eb3c188da7U, 0x3cf2e1f3bc8c92bcU, 0xbb11e31abc1450aaU, 0xbd0168a53c8a9639U,
  0xbc0220d3bc0fc619U, 0xba05af4e3c876f1dU, 0x3cffc1f7bb1ece66U, 0xbb77a7f83bd601bfU,
  0x3d075c84bba61a5aU, 0xbc86dbf23cca26e4U, 0x3cc311323ce1971dU, 0xbaa8bedebd0100e8U,
  0xbce909ccbcdfe9dcU, 0xbc4ede193c4e1fe2U, 0x3a9a07f73c489dc5U, 0x3b004d693ccdba33U,
  0xbcef98ec3cf758fbU, 0xbcde976d3c9be8aeU, 0xbc99bdcfbca7fd84U, 0xbd0d1b59bbf1e8ccU,
  0xba257aa23c97aab8U, 0x3c9903a5bc39fb69U, 0xbc4a487e3c725007U, 0xbd0807aa3c906a49U,
  0xbce4bc85bc5df324U, 0xbc72db493d0a2b68U, 0xbbf1dac83c82e3e0U, 0x3c594d6cbc7a9fcbU,
  0x3c69d018bcdc86a9U, 0xbcc5a4563cb2b254U, 0xbc1753e73d03ba08U, 0xbcdf44a9bcc3169aU,
  0x3cb0ae11bc8e15f5U, 0x3ca0e38ebbecdfebU, 0x3bdc9708bc6e6ab6U, 0xbc810775bcd651a1U,
  0xbae8bef33ce38791U, 0xbcd71ed6bb859761U, 0x3c594da6bd1604c4U, 0x3c8a2c01b9de40d7U,
  0xbd09c414bcecfd8aU, 0x3b6de2183c9bcfe0U, 0x3d0b1cefbca2d38cU, 0xbc88c0193c20c636U,
  0x3c6b00bcbcbbea18U, 0xbc28dc5d3a29dd51U, 0xbcc4f9a73ce898b9U, 0xbc90e09a3ca298c9U,
  0x3bc95fbabbc372a4U, 0x3c5c841f3cf37bf3U, 0xbc99c66cbaad2756U, 0x3cbf41dabd0c4bc1U,
  0x3c80fadc3c1d1b06U, 0x3c947d003ccecfebU, 0xbd0be80f3c634d06U, 0xbbf5126a3cb08dcaU,
  0x3a1aec563c2fd4d3U, 0xbcce7578bcd8c9d3U, 0xbd00a9a33cddc25bU, 0x3c8cd7af3c7a1f48U,
  0x3ce5cf653bce0b3bU, 0x3d118c5f3c4fc403U, 0xbc382d20bcb66a8aU, 0xbccd68e03cc3d20eU,
  0x3cf6e8d33d0fbfb9U, 0xbca51c57bc81344cU, 0x3bd7d272bce85a55U, 0xbb813b3e3c1e074aU,
  0x3c472b22bcd42d06U, 0xbcc821993ce414f0U, 0xb74bf5843cd733c1U, 0x3cf433b5bc4d21c7U,
  0xbcb0dc01bc7edcdfU, 0x3c5658613cf17cdbU, 0x3c8be1a7bcbb708fU, 0x3c7772203c088a42U,
  0xba4fc8ec3bade835U, 0xbd272efabce23586U, 0xbcbde0edbab29fffU, 0xbcfb80703cf2224aU,
  0xbd031e0d3a50d236U, 0x3bd052c0bb25d525U, 0xba65e8053cfc2d29U, 0x3c7aae713b9794f6U,
  0x3be0510dbcb560efU, 0x3cb4f5cd3cc787b8U, 0xbd14ccd13bc6442fU, 0xbcf3a858bd017678U,
  0x3b2b43d5bc37b4baU, 0x3c97b2213cae1aa2U, 0x3d030868bc0b90baU, 0x3ba317833c98330fU,
  0xbc83f8aabb37bd29U, 0xbbf41ff7bc364370U, 0x3c779d52bcbd45ecU, 0xbc08a265bcd3bdbdU,
  0xbc75b0a5bc6c7519U, 0xbb9760cd3c5cf026U, 0x3c8f2e0cbced080bU, 0x3ab36300bd014bf8U,
  0x3d14839dbb76c63cU, 0x3c6227c43cc93a69U, 0xbc299f47bd17b423U, 0x3c3d374b3c88cf8dU,
  0xbb3cd98ebcbaede1U, 0xbd13ee93bd0b365cU, 0xbd1427c7bc46efd2U, 0x3ce724383be6ac5fU,
  0xbca566963c6e6353U, 0xba1fc7c2bc7d5318U, 0x3cf135bbbbe570efU, 0xbc199523bd0fd99eU,
  0x3d02b402bc95652dU, 0xbb8f14b43c926d6bU, 0xbd0a827e3c0c3f7bU, 0x3d0c97403c4ecebfU,
  0x3b2f7ffa3ce1613aU, 0x3c51cd4cbc565b6cU, 0x3ca776773cf43afdU, 0xbceeb1cdbc098452U,
  0x3c13a22b3cdfefd6U, 0xbbf29a66bb6e8d83U, 0x3ce19f033d060fdeU, 0xbd11fc4fbc6d528bU,
  0xbd0a37463cda2e2aU, 0x3a5b132ebbe095cdU, 0xbca233503ca163f8U, 0xbc634fa0bcda3f9eU,
  0xbc7fc3a8bc17f499U, 0xbc9a283abcc85722U, 0x3d01f1693cd9a03bU, 0xbcfe25ba3b4f1770U,
  0xbcc22fc3bd093b97U, 0x3d020a73bc07b492U, 0x3c44dccabc97c37bU, 0x3c4a7233bcd4ae8dU,
  0x3c2cd8923d00e8beU, 0x3d118f1e3cb63662U, 0xbcb3eff0bced7790U, 0x3c5eb78f3cc0bc07U,
  0x3cdfe7773cde4284U, 0xbceb4afa3cb15076U, 0x3ccba04ebca9220dU, 0xbcab3091bcab6ac0U,
  0xb9f134eb3bac65f5U, 0xbc521ffb3c5b5a47U, 0xbbe402e13bb4b715U, 0x3ba989673cb73c2fU,
  0x39c1a6d2bcc3461bU, 0x3d1b459e3cab5e87U, 0x3ca91a0dbcefeac5U, 0x3a84146b3c1d0e95U,
  0xbcb76dd0bd101edaU, 0x3c2da9a7bcd65f49U, 0xbc0954073cb77ddeU, 0x3c3e32f73d0b117dU,
  0xbd0acf15bb9bc9a6U, 0xbb3cadff3c314d42U, 0x3d2264b23bdaa46fU, 0xbd1d54bcbc7ad114U,
  0xbce402a13cde105dU, 0xbc2bde10bd14b422U, 0x3bcf77e73ca0efbaU, 0x3cf2aa4b3c79465fU,
  0xbcdaaa993b995f34U, 0x3ce883b5bbc5c6fdU, 0x3d053498bb5f32b1U, 0x38e0c7203b8a063bU,
  0xbd0d43b73cc22788U, 0xbc21aa2d3c19af4eU, 0x3ce27b6e3cf05feaU, 0xbb3d4475bd00cafaU,
  0xbcbcd003bc964cb5U, 0x3ced82113bbbc6f8U, 0xbbd9c9a1bcb8e244U, 0x3cb074c5bcc26118U,
  0xbcb1e1c7bb28a9dcU, 0xbccc32133d064818U, 0x3c5618e9bcc1eb23U, 0xbbc7726cbc9d2546U,
  0x3cd2b8e33d057dafU, 0x3cf26a66bcc13adcU, 0x3cb3d309bc3d093fU, 0xbc0e4ee53cead203U,
  0xbcc242223cc13728U, 0xbbe86b723cf12fbaU, 0x3c30026b3ceacdc5U, 0xbc03f9513c4ffc39U,
  0xbaaafcd6bd134f68U, 0x3ce7b51c3ca4968eU, 0xbd0ba9943bfdd50dU, 0xbc4e3530bc9a0115U,
  0x3cccad4f3c8c733fU, 0x3c7dddf0bbefef41U, 0x3c2cf54537f30250U, 0xbc5048c9bb1dd5f0U,
  0xb9d92c2db98ee940U, 0x3cf10e5bbcb0e84dU, 0x3c2a10053a3cf1d7U, 0xbcddd764bcfb608cU,
  0x3b3ca301bc8a7d5fU, 0xbb9b51e5bae4c50eU, 0x3b0a8943bc710dc7U, 0x3c0f99be3adba2e9U,
  0x3c87b9a23c8f2b29U, 0x3c289a72baf17d5dU, 0x3c9184113c5b6a7dU, 0xbc9eef60bc437ee0U,
  0xbc4eafc7bce3a659U, 0xbcaf729fbce19564U, 0xbcc382ecbd0b9424U, 0xbce834aebc92a0bcU,
  0xbc0edfeabccea220U, 0xbaa8a908bcc8262eU, 0x3b946bf23c47fea2U, 0x3d2213843aba4f08U,
  0xbc73381a3d303dc5U, 0x3c8061dcba32710fU, 0x3b98c6ed3d0caabbU, 0xbcd5c2d33c592babU,
  0x3d1603193c04afb8U, 0x3d0e1f8bbcaf66d1U, 0x3bd37760bc399d66U, 0x3d0ddfed3c5236f9U,
  0xbab3ed8d390f49b4U, 0xbb9e4d393ca9f8c0U, 0xbca159f13bc1652cU, 0x3b9f183b3c955809U,
  0xbc540e51bb08cb85U, 0x3cbd9ee7bc99d2c3U, 0xbc5c449e3d076487U, 0x3be6d59cbbee8f24U,
  0xbd175eb83d2a8cabU, 0x3cc4eb43b9f8d6efU, 0x3cd1c993bbc7f24aU, 0x3d2f7b423bcee31bU,
  0x3c2ff18ebc642ee1U, 0xbc6a4b583d3a284eU, 0xbbaffbfc3c49af64U, 0x3baec71fbc688925U,
  0xbce8f9bcbb6990ddU, 0x3cb866d7bced232cU, 0x3cf3eb103ab70aa9U, 0xbca45f623d0dcd52U,
  0xbc73ea603ccd44d2U, 0xbc15a3a9bbbfe24fU, 0x3ccc1339bc423512U, 0xbbdca7f63c12add4U,
  0x3cc7e5073d0e62f8U, 0xbb36b8f7bcf67152U, 0x3c2f676e3c5c0d8dU, 0xbc1e04663cba9c99U,
  0x3c24a4e43cb0f3efU, 0xbc34bbaabc1724cbU, 0x3c46a5e6bc947617U, 0x3c4aee083cf63cb7U,
  0xbc01e1c13b4891c2U, 0xbcb9a97b3c7ecf1cU, 0x3b7ec743bbd2740bU, 0x3b73c113bc8889b1U,
  0x3aaf8e453ca1a878U, 0xbd2a8d59bd0559aaU, 0x3cb283c03ce2169fU, 0x3ce7d2a93ca7e363U,
  0x3c86fb41bcd1a415U, 0x3c92d8a13ba07e92U, 0x3c065931bc58e2bbU, 0xbc9c15cb3b2abe23U,
  0x3c90ab23bc6130a0U, 0xbcbee4cc3cfd0fc1U, 0x3ca97bf83cc99cc9U, 0x3ca2ec94bcc1241aU,
  0x3d00c7623cd47848U, 0xbcab6be03c6c932aU, 0x3cfbb26abb0fb595U, 0x3ca080abbc52469bU,
  0xbcde078abce832c8U, 0x3c0f339e3cc1144bU, 0x3cddf280bcd00319U, 0xbc3bb73c3c17086aU,
  0x390a38ad3ce4dd97U, 0x3ccae3d13c8e12d8U, 0xbca4233cbc473689U, 0x3c4aef0b3ce773f4U,
  0xbd156e75bca5acb4U, 0x3c4667303b886f69U, 0x3cea7579bc80f4a3U, 0x3cd9b4ffbb7f8d23U,
  0x3cd832fd3c4f8a69U, 0x3c046a93bd18b120U, 0x3b00d9f8bc6854b3U, 0x3c0c66f73b998f88U,
  0x3c8754fe3d0558d6U, 0xbca3f921bb3fd02fU, 0x3d137717bcdcf5c4U, 0xbccf428c3bf475ffU,
  0xbcd31ddb3ad1dd40U, 0x3ce312883adcda96U, 0x3cddaca23d2f02a4U, 0xbb69c958bb992d36U,
  0xbcf215b13bab6a8eU, 0x3cfdccff3c2c1a5dU, 0xbc8326dc3cedf735U, 0x3cd4349f3d1f7646U,
  0x3d1466bfbbdefcf3U, 0xbd08990d3cc997f1U, 0xbb78b20abd0551feU, 0x3cad768a3b67fc57U,
  0x3cba189ebd04cbdbU, 0x3adcfb813c40b48bU, 0x3cafc287bd06d133U, 0x3cbb72de3cb6530eU,
  0xbcb1792c3ce49c5cU, 0xbb6e0c08bcc1f185U, 0x3cb871fcbae1931aU, 0x3cdf22fb3b8299c1U,
  0x3d1ba486bc9939a9U, 0x3bc7a5073c81f375U, 0xbcab775abc9ccd07U, 0xbb243eefbd0e04ceU,
  0x3c73cc6d3cf65dd9U, 0xbbeca57cbc684beeU, 0xbc1401e03cb1abdbU, 0xbca5ee513c48f576U,
  0x3cdf7e833cc168c6U, 0x3cdf261fbc2d82acU, 0x3d17ec73bc47250cU, 0xbbe6f5c7bca8d130U,
  0x3b5138d73cf47165U, 0x3c649e353c583555U, 0x3c16498fbc3be070U, 0xbcf706763ce6d9afU,
  0x3cd0f8703ba28308U, 0xbc438779bc0947ceU, 0x3cfcdc4ebb9d8fc7U, 0x3ca130cabc61f622U,
  0x3d1ab47abcb85f21U, 0x3d1d0f5dbc820a65U, 0x3c6ea9d93ce59ac7U, 0x3c618279bc919e04U,
  0x3c8b3a39bc06cb52U, 0xbc7e4e7ebc19e469U, 0xbd0c0685bcc9512dU, 0xbceeb0df3cd6ef2dU,
  0x3cee1407bd010be2U, 0xbbf4f642bc2522c6U, 0xbbaf1535bd0549d4U, 0xbbf3c9e23cf31398U,
  0x3d18bfc2bb2112eaU, 0x3be6fbf7bc495a00U, 0xbcce9c883b851380U, 0xbc0b877dbcbf1700U,
  0xbc6a08023ce0c57eU, 0xbc8ce3cebd125dc7U, 0x3c8cf04c3c72e613U, 0x3ca8e84d3c925311U,
  0xbc9e55173cc5555aU, 0x3c08b568bc711bd0U, 0x3d05582fbc3dccaaU, 0xbc9fe49c3c156692U,
  0xbc716a553ca85d49U, 0xbc950abe3cdec394U, 0x3b54bce23cdf9796U, 0xbc160b823cf35ac4U,
  0x3be41ab63c2b2c22U, 0xbcfffa2bba3f59bcU, 0xbca595263cc40c05U, 0x3caafef23bc43fbdU,
  0xbb78923dbcf5e05aU, 0xbc459510bcfc31baU, 0xbaaa32b83ca935e4U, 0x3b3359573d17215fU,
  0xbcbfc8e53cad6ddbU, 0x3d1622dc3cfcf64fU, 0xbbe7a2ca3c2ed261U, 0x3d052d3cbc828f7eU,
  0x3cb7ec633b0e39d0U, 0x3bbdad0fbd1570d0U, 0xbd07db5fbcfbc83eU, 0x3c122b6e3c207438U,
  0x3cd6dde73cac9893U, 0x3c8728d8bbcc5c9fU, 0x3ce4debc3ccf704dU, 0x39996d853a55d5bcU,
  0xbc49d4a73cad1102U, 0xbce431413c1a4752U, 0xbb8b666b3cd017aeU, 0x3cb353ea3bb0ae68U,
  0xbc7c2440bbe09861U, 0x3c4f507e3cf00ff9U, 0xbd0d02b43cebf64bU, 0xbcd89c31baf4490dU,
  0xbcbc17b63d032d50U, 0x3c90d273bcfe6929U, 0x3c576946ba015d6fU, 0x3ce6aa753c2e96a8U,
  0x3a2896d83c679283U, 0xbd0702143cd52c78U, 0xbc9366973c943bf1U, 0x3d049741bca99998U,
  0x3caa53ae3c0d12f3U, 0x3c8b13bebc199477U, 0x3b091c24bc3bab40U, 0x3cefa9d3b9903d54U,
  0xbd1b43f53c3f1e3bU, 0xbd02cfc2bd0fe5b6U, 0x3af76d7f3d01c09aU, 0x3be110ab3cab2597U,
  0xbd0035ddbca30abcU, 0x3d04e004bc942ffaU, 0xbbd2f1a2bd12d563U, 0x3c038d7ebc3b2c92U,
  0x3d1aa1f8bcc75217U, 0x3c5728233d1369e1U, 0xbc03ef7c3c38c516U, 0x3baee1b3bce8c75cU,
  0xbd0c352b3bab9935U, 0xbcd8ae403c67cba8U, 0xbbab6feebceea935U, 0x3d00c043bbcc7763U,
  0xbcbc3fbf3bc8606fU, 0xbc92d2a7bc39b8c6U, 0xbcbcdf82bca0aea6U, 0x3d17dfc03c4f9e3fU,
  0x3c8ae9893c9396b6U, 0xbb386fa33a4b47faU, 0xbacbde703cfb445eU, 0x3c8bba7bbccde4e4U,
  0x3c5b3a5ebbd26b39U, 0x3b9e74c5bcfc3bcbU, 0xbce539a63bf77f7dU, 0xbc37ae84bbe7402eU,
  0xbc7f18fc39fb50bcU, 0x3cedda233a1b140eU, 0x3c5952b2badee45fU, 0xba5542ba3cc6b8f7U,
  0xbb8e1acd3d0bf2abU, 0x3c791e6d3c8be98cU, 0x3c29e1b43cf215cfU, 0x3cd4cabfbab3e332U,
  0x3b9b85e63c95fca8U, 0xbbb62a4e3bfc956aU, 0x3d210c5c3cfa9a1dU, 0xbc3dee7ebc02b6cfU,
  0x3d1fef363be3506bU, 0x3ca70df83cef7a73U, 0xbca3fbfa3b64ed15U, 0x3bff2e153cd9a4d5U,
  0x3cc88f4d3cd75dd8U, 0xbc01b598bc9e1308U, 0xbc31afacbb96459dU, 0xbc772e16bcd0e108U,
  0x3c3c208ebd017376U, 0xbcce3a803c0d2d55U, 0xbc21ad8cbc8afae0U, 0x3c3d0e663cfa69b8U,
  0x3d0d58a2bcba7abbU, 0xbccbfa3fbc31c961U, 0xbd17e2363ce22f65U, 0x3bd062e43ba5ae11U,
  0xbc3bcaad3c1b1483U, 0xbcf861d3bc3a3e80U, 0x3cdbbd653cc095b3U, 0xbcdc6004bc223cfbU,
  0xbc78ee6f3c229042U, 0x3aee0d09bb968c33U, 0xbbb888393d11f200U, 0xbcc4b4e9bc411764U,
  0x3c066fa03c72ab87U, 0x3c9c925cbd151564U, 0x3c6b6b7d3b18d1bcU, 0xbc61d2d73ca1fddcU,
  0xbcdeb256bcfd4749U, 0xbcbb56af3cd2da80U, 0xbd0432a63d10d0a6U, 0xbbf2b2e13c945642U,
  0x3c521a9dbcb45f54U, 0xbbdbcb4f3c6c198dU, 0xbcbcda7b3cf06cf5U, 0xbcd01ccabce74ef6U,
  0xbcd060e6bc80384cU, 0x3b25e348bcc45a21U, 0xbcaecec03b378da9U, 0x3c396dc93c6b991eU,
  0x3d0994ccbbf6b04aU, 0xbc16db023c2f8c21U, 0x3cb9e5c53c44f347U, 0x3c84be00bd0ec682U,
  0x3c3cccafbcb54010U, 0x3ca283f93acda21aU, 0x3bbf29393c82707bU, 0xbb7e2047bc2d87a1U,
  0x3b1939d9bccf6ed4U, 0xbc6955153c663321U, 0xbbc3c7d9bca56062U, 0xbc2a3d1e3c775e1eU,
  0xbc6439f43c8c1fddU, 0x3ce00c013c5323beU, 0xbb1a1566bcff2e76U, 0x3cf0117f3c53907eU,
  0x3bfa4366bd032735U, 0x3d0ebfb63ba05830U, 0xbcd3f3e1bc95d9e7U, 0xbd09ae7a39c71929U,
  0xbbffc9523d029387U, 0x3c70ee23bcac839fU, 0xbaeeae3c3c747eb7U, 0xbd22cd8f3c105ea0U,
  0xbc99723dbbb6d8adU, 0xbd139297ba8dffb8U, 0x3806035c3c9ae4c7U, 0x3ccddc333cdd7c22U,
  0xbc4d1dd1bd07b2a9U, 0x3cf9cd06bd04ce74U, 0x3d1146b4bc7fb319U, 0x3bcdace5bb74ae14U,
  0xbce4c0ccbbfa25f8U, 0x3be25aa53c8283eaU, 0xbcb136d1bc36b619U, 0x3cd98392bc776e32U,
  0x3c89248e3d012575U, 0x3c919f7b3d02b8bfU, 0xbaae3579bcbafb8bU, 0x3c0605133c97da7aU,
  0x3d07842bbbc892d1U, 0xbce28f573c85bd66U, 0xbcf97b553d02e249U, 0x3a8d3e3c3b2c7eddU,
  0x3b180133bc878d48U, 0x3c7ea0483b8138f1U, 0x3c9536273c750566U, 0x3c10502dbc02dd0bU,
  0xbcf76a433c8e4ad0U, 0x3c4dbf3abcd8ad9bU, 0xbcb136abbccf424cU, 0xbd0f5be23c1b20a1U,
  0x3be246133cdaee43U, 0x3c3627dbbd1cae52U, 0xbbf58d453ca81bb2U, 0x3cb3fd72bd042ee8U,
  0x3c9995a23cac8bd9U, 0x3d10c50a3b0beba1U, 0x3c54eee83cce25aeU, 0x3c9479fe3b2c204dU,
  0x3cc0f0723c0d0662U, 0xbc927b74bba9de2aU, 0x3c9aa58abc3b92ffU, 0x3cfcfaaa3ca45b7aU,
  0x3d05cda73d16c4f6U, 0xbc5f3b103c9017d3U, 0xbb9751f7bbcd56b2U, 0x3d074f7dbca5912cU,
  0xbcda9b813c8af61fU, 0xbbf37525bcfcd3d8U, 0xbc53df6c3ae90b39U, 0xb99105fbbc8fbe88U,
  0xbca8cc113d06a2c8U, 0x3cc2e883bb99f39cU, 0x3c257d853d1ff4e7U, 0x3b8d8ecc3d0842c8U,
  0x3cce942cbbad66e4U, 0x3ce40ec2bbac22aeU, 0xbcd10642bc0aff4dU, 0xbcadbb5f3b995fe0U,
  0xbd0f371c3cef39ddU, 0x3d0cc812bcb0a4b7U, 0x3a4e658abbfdf475U, 0x3c2fc6be3c7d3dffU,
  0xbc5d4160bcd222d3U, 0xbb963c23bcbe0f5eU, 0x3cff2a6ebc597f5dU, 0x3c8c52973c498ffdU,
  0x3c9ad705bbc6f4cbU, 0xbc184dec3c4fc95cU, 0xbc2d7ef23d11e79aU, 0x3cb47ef9bcdb26ccU,
  0x3c049091ba861e3aU, 0xbb8d28123ce25cffU, 0xbc771e3abaa7a278U, 0x3c5ae76a3ad12254U,
  0x3c953ee9bd058f6cU, 0x3c854fbc3bab75e7U, 0x3ce6c82fbc5920dcU, 0x3d08b1ee3d017a14U,
  0xbc114fcf3d250ce9U, 0x3c693861bcc970a4U, 0x3c6018603cfddf9aU, 0xbcb69a063ce9dcb9U,
  0xbbaa8dda3ce5941aU, 0x3d258067bcc1ceddU, 0x3ca6843f3ca2be49U, 0x3d07c7163baecbbcU,
  0x3d0fb5433c856c30U, 0xbb64a03a3c320067U, 0xbc20ed5d3cc62513U, 0xb9d3416fbc858a41U,
  0x3a5bbfa43b8a123eU, 0xbbd5b66bbc3a7d5aU, 0x3ce893543ce42cfcU, 0x3d090ed53c0a9466U,
  0xbcf757653cfda7d6U, 0x3be5d3ddbcca1ea7U, 0xba46a514bcb4dec9U, 0x3cf6e01ebbcbd311U,
  0xbcb45b053ce140d7U, 0xbc01012cbcd54dccU, 0x3c9132c23b1deed8U, 0xbc571658bc9748bdU,
  0x3b5821a83b827910U, 0x3c0aff403cf1750fU, 0x3d0ab5233c9e311dU, 0xbc906147bcfe49d0U,
  0xbcb701e83d09a41fU, 0xbc857b38bbb48c15U, 0x3cb5a8a53aa9e0eaU, 0x3d09dc343c901385U,
  0x3ccecd6bbc4fd058U, 0xbcb3c041bb367959U, 0xbcdaa1c0bc9a4033U, 0x3c01eee23cc0a2ebU,
  0x3c8ce3b1bcba34b5U, 0x3cf057543b8e939dU, 0x3c4e0e053ca7950dU, 0x3c1202bf3cbb3e9bU,
  0xbc2efa48bc86ce56U, 0x3c928cf53cb1afafU, 0x3d080d1ebbf8fd73U, 0x3cc7847fbb144c13U,
  0x3c96086f3d19d3beU, 0x3cf9fca73ce5cd17U, 0xbbac373bbc595f25U, 0x3ccd2e11bcc2385dU,
  0x3ced550cbbdb274cU, 0xbcef2b803d144a58U, 0x3c84a278bc6bc27cU, 0xbc8235afbcd33159U,
  0xbb43cd7a3cfdbd4aU, 0x3c56b5803cd97a8dU, 0x3cbb450cbc1af5a2U, 0x3a66b6d63b21a033U,
  0xbd0772a73cc207aaU, 0x3c08dc7bbc7a6130U, 0x3cb771bf3cb2f66aU, 0x3bf6e5dfba035b69U,
  0xbc2642d63c981542U, 0x3cffbeaf3ceb4cb1U, 0x3c9ad4253d01d1ecU, 0x3d11799ebcdb4211U,
  0xbc6d0e2a3bcaa51fU, 0xbc4d85983c52b414U, 0xbbf3631e3cf92c7eU, 0xba405704bbe49b6bU,
  0x3bd5086a3d130348U, 0x3cea41bc3c095b29U, 0xbce8c8f83cf386a4U, 0x3c75a5c03d019a4dU,
  0x3cf4fc82bc3cb3d6U, 0x3d0f942b3d0ba197U, 0xbc6380c7bc2d94aaU, 0x3c5ff2883ced5141U,
  0xbcf5b7353b63aacdU, 0xbc1757d4bc84b4eaU, 0xbc3778b93d012de4U, 0xbc2458303b0e910fU,
  0xbd17cc2f3c1b7841U, 0x3cb1c6a63cb22c70U, 0xbc20d6d03d11e672U, 0x3cb25dd6bbd696e0U,
  0x3cfb8a943bbc4f91U, 0xbcdbd3523c88fa83U, 0xbc9849e03ceae9bbU, 0xbcdaacccbcd37548U,
  0xbd159cf83c2251bfU, 0x3b929463bd0b14c6U, 0x3b86dc213d05542cU, 0xbce19b3c3cd81b6eU,
  0x3d02c092bbc7295eU, 0xbc8a983b3baec5c8U, 0xbb592e093cfa8cedU, 0x3c960777bcde3768U,
  0xbcf26e9bbc79a469U, 0x3cd273c4bb9e4758U, 0xbacdd124bc974ae6U, 0x3caa5f02bcde07c9U,
  0x3cf9f620bd00a284U, 0xbc0b9a233cf4f29fU, 0x3c9e7f853cc90639U, 0xbcddb5043d079848U,
  0x3c3b4bb03c8b62c0U, 0x3ca3cdb9bcf65ee7U, 0xbd06f1e73c4b50d7U, 0xbd15e7833cb4c749U,
  0xbbe45e37bb5c5048U, 0x3c60f75abc651142U, 0x3b0878fb3be65f58U, 0xbcdae797bc28192cU,
  0xbc8bf2683d145d49U, 0x3c87d41d3c16f456U, 0x3b68d09abcc57ac8U, 0xbd1549c13d0c1076U,
  0xbbffaba2ba35a5caU, 0x3bdeef13bd059fd8U, 0x3d0e47b0bd0d1030U, 0xbb2a7e4aba3ef367U,
  0xbb9344ce3d06cf64U, 0xbb885c293d0786ceU, 0x3d036cb7bc8b259aU, 0x3c8bf3ce3b7f7832U,
  0xbca64ea6bc85486fU, 0x3b87dfe4bc3cd01aU, 0x3be51d3b3ceaea6dU, 0x3c865f12bab37fb0U,
  0xba088b2abd098effU, 0xbbabcd2d3d063ba7U, 0x3c0495463b141b89U, 0xbac17441bd0e664fU,
  0xbc3971fe3cea6526U, 0x3c90f89f3cdff304U, 0x3c87c855bcb0a779U, 0x3d018c38bba5a597U,
  0xbce8a736bc841812U, 0xbc925fdbbce65a60U, 0xbc7fdc733b9b0708U, 0xbc507555bc871fc0U,
  0x3ce4b9633cf32573U, 0xbc8672d8b87a99d7U, 0xbcff2dc0bd0a56f6U, 0xbc31db483cf2be5eU,
  0xbcc6c6713d02fae8U, 0x3b1a906cbc7a6d71U, 0xbcb386b6bcfc78fcU, 0x3c128ebabc1a9278U,
  0xbcc899083b460604U, 0x3cf885a3bd13be02U, 0x3c61d362bbad260dU, 0x3d004f043ce4ed9fU,
  0x3cf6ff24bc364b72U, 0xbcdbf43cbcdafea6U, 0xbce787703c8b4220U, 0x3d0d4bfc3bb42556U,
  0xbd0d5457bc10d5beU, 0xbd091f71bcaaf166U, 0xba0f34f93c896f80U, 0x3c8b08663ba9b69dU,
  0xbc4383873ca22244U, 0xbb28fb523d1bfa36U, 0x3c3f97123c43fb23U, 0xbceba1943c801163U,
  0x3d1380c83c093560U, 0x3ce9bcd23ba3b153U, 0x3c1582e93d0a09d8U, 0x3ac969fbbc8cd614U,
  0x3caa2a353cf538f9U, 0xbcb8e986bcf7c3ecU, 0xbae179933bcc6268U, 0x3cb4876f3b869003U,
  0xbd147ffebbbd355aU, 0x3c7ad0153c698dccU, 0x3cf67035bcd0d013U, 0x3cfa5734bbcdf51bU,
  0xbcaf6db4bd1b0c64U, 0x3d09bc643c8249aaU, 0x3ce42320bca78216U, 0xbd04152f3cc7938dU,
  0x39cecc463c81f1aaU, 0x3c22f860bc8541c1U, 0xbc904dabbbbeb499U, 0x3cba9bdaba97ef4bU,
  0xbc2cc013bc8cb15dU, 0x3cd7e46a3be0ce34U, 0xbc8c39203d02f331U, 0x3ca710a2bac13311U,
  0xbcb5a5fd39a8e9baU, 0xba2c4ee0bbe8645fU, 0xbd0272b13c968b13U, 0xbc44a8dabc964bb0U,
  0x3caa37c2bc208acfU, 0xbd0304873cef83beU, 0xbc890803bc583b7aU, 0x3d0372f43ca7561fU,
